{"layers":[{"out_depth":43,"out_sx":1,"out_sy":1,"layer_type":"input"},{"out_depth":50,"out_sx":1,"out_sy":1,"layer_type":"fc","num_inputs":43,"l1_decay_mul":0,"l2_decay_mul":1,"filters":[{"sx":1,"sy":1,"depth":43,"w":{"0":0.04527343555585326,"1":0.07758575761567199,"2":-0.1093107916220929,"3":-0.15864850028340724,"4":-0.11096129164530527,"5":-0.08079220846660058,"6":0.09501384427968383,"7":0.013941716074653434,"8":-0.02219103454485941,"9":-0.023746848850144532,"10":-0.19727607929641597,"11":-0.0256143485686346,"12":-0.25038563968193794,"13":-0.046911443406368006,"14":0.08935209346274461,"15":0.05313469695348526,"16":-0.20008988559446997,"17":0.14149590901430403,"18":0.03277103868524093,"19":0.0244953379200979,"20":-0.0898942298390982,"21":-0.02353156033126322,"22":-0.027175906873163975,"23":-0.09666615920908074,"24":-0.008076095782580242,"25":0.08650676538141501,"26":0.08916022834700042,"27":0.07555970747385582,"28":0.12350911664315904,"29":-0.3691714130074722,"30":-0.042809986849510435,"31":-0.15350046442015508,"32":-0.1643911289793022,"33":0.007199926559849499,"34":-0.09595247833766984,"35":-0.08897951421985457,"36":-0.1267823463941977,"37":0.022916495387430364,"38":0.006364635475027325,"39":-0.044152373252129784,"40":-0.06294434476389643,"41":-0.11431274681788191,"42":0.0447216199660792}},{"sx":1,"sy":1,"depth":43,"w":{"0":-0.03777700545255999,"1":0.33316211894512254,"2":-0.047444514084815176,"3":-0.013939702219559156,"4":0.147888270049804,"5":0.07962094076021788,"6":0.28426656799459166,"7":0.17553697289476958,"8":0.3656563017572188,"9":-0.010493103637440118,"10":-0.05870730566710566,"11":-0.04774484975757957,"12":-0.12160533275060215,"13":-0.0004572417920635383,"14":-0.2651320982459027,"15":-0.030003897961392818,"16":-0.09733909602222975,"17":0.017339983146839873,"18":0.23526914982294966,"19":0.01233763033802467,"20":0.3082402737721539,"21":0.005276407432589712,"22":-0.014254117797364275,"23":0.06224353048553693,"24":-0.08121367931539165,"25":0.08396701755574507,"26":0.05984481773347518,"27":0.21893100051024225,"28":0.21606121759061797,"29":-0.028006762068368184,"30":0.14495916806231918,"31":-0.2024270287759155,"32":-0.04356411152988384,"33":-0.2535474595784276,"34":-0.029208536586954964,"35":-0.09849712027384327,"36":-0.06505282446342275,"37":-0.4647746081783799,"38":-0.10887300674129857,"39":-0.10499968120652597,"40":-0.12203769916647132,"41":-0.10168978732851665,"42":-0.09127697623767378}},{"sx":1,"sy":1,"depth":43,"w":{"0":-0.0041036140342872954,"1":-0.034563097742303116,"2":0.02292191757955921,"3":-0.22955851868481716,"4":0.2715284275821724,"5":-0.06876600906934303,"6":0.573207689170774,"7":0.27596309290233745,"8":0.6747522744231528,"9":0.07169878932980712,"10":0.23839876876296215,"11":0.10179871667237259,"12":-0.019969955049607246,"13":0.12619763342650114,"14":0.02682089468072514,"15":0.08806773628865708,"16":-0.23890500190086214,"17":0.1758195471395428,"18":0.011315802688297703,"19":0.056613500681043795,"20":0.057004284665352706,"21":0.03760532256413111,"22":-0.03230095526326512,"23":0.14821072291812584,"24":0.162532870152257,"25":0.3214286028053648,"26":0.177993676471844,"27":-0.05086957321967475,"28":0.16589349460763184,"29":-0.021493762868670538,"30":-0.025751285409928455,"31":-0.07849371501796197,"32":0.10350246580815363,"33":-0.11224973742987254,"34":0.10731201042532634,"35":-0.13377429812876,"36":-0.019088582048378794,"37":0.10453864437241019,"38":-0.18931035570547478,"39":-0.19374233982759334,"40":-0.20179323259831883,"41":-0.1841383896853821,"42":-0.15786069891376034}},{"sx":1,"sy":1,"depth":43,"w":{"0":0.11804925790306375,"1":-0.10030982736713079,"2":0.03135162227738792,"3":0.0048549436135908505,"4":-0.0387726493630425,"5":-0.006678541209946789,"6":-0.06291581105714547,"7":0.022171666650650606,"8":-0.05321362040330235,"9":-0.10634098347708142,"10":-0.13043952416847304,"11":-0.09131215147020934,"12":-0.08521606000042377,"13":-0.0745866819599957,"14":-0.10068231357789943,"15":-0.09780166036463585,"16":-0.043289714413488126,"17":-0.010894775290211371,"18":-0.031174070395690954,"19":0.07398711558899772,"20":-0.12809330957759904,"21":0.1093742675586456,"22":-0.01795327855204417,"23":0.027077224455894125,"24":0.09259761521331955,"25":0.017625926753152225,"26":0.05225232020456603,"27":0.010512378276166004,"28":0.08009671028228321,"29":-0.2550045962469562,"30":-0.042385598656512626,"31":-0.18108450994550745,"32":0.0012493036974190466,"33":-0.22017920092084017,"34":-0.06497036493812466,"35":-0.08298165467884001,"36":0.017223222757952586,"37":-0.029330154660289633,"38":0.029969238840302125,"39":-0.013286408268622048,"40":-0.0927271811249208,"41":0.1713355710003716,"42":0.08376637668548836}},{"sx":1,"sy":1,"depth":43,"w":{"0":-0.04329606536186696,"1":-0.02034581978066122,"2":0.13360851423289,"3":-0.03269171336862023,"4":-0.08805071718321131,"5":0.034254350051714885,"6":0.010585425358000618,"7":-0.05508546408051271,"8":0.1138494250256295,"9":0.047267315434122985,"10":-0.03804036253597971,"11":0.04309665440090207,"12":-0.03664948614503028,"13":0.15572890464053912,"14":-0.040275019911543565,"15":-0.047274655004557235,"16":-0.01960979667153921,"17":-0.06037376463031158,"18":-0.0807379136565186,"19":-0.02361800249919387,"20":0.03040673388927454,"21":-0.0016529402326835787,"22":0.06271521116680646,"23":-0.04048046744824717,"24":0.04821888011133166,"25":0.14561153029573679,"26":-0.06339243643794922,"27":0.14614363518486537,"28":-0.07109070319224595,"29":-0.06943648368188424,"30":-0.03531153170437589,"31":-0.17447623886193073,"32":0.0211707351519972,"33":0.057547654660610764,"34":-0.11572959012261952,"35":0.08885360718144365,"36":0.045078062999694614,"37":0.16521961679449026,"38":-0.12472313727556172,"39":-0.04118333743237223,"40":-0.03253947468020598,"41":0.16374083834883402,"42":-0.03417892349898133}},{"sx":1,"sy":1,"depth":43,"w":{"0":-0.06977152726301024,"1":-0.015710502560197855,"2":0.1121649294245271,"3":-0.07131690063003121,"4":0.036929179812410125,"5":0.16026483035463193,"6":-0.018117405591103964,"7":0.07117444591101335,"8":-0.06030081518891811,"9":0.032662938230078736,"10":-0.029522855247947826,"11":-0.00898595252574517,"12":0.07663144265393956,"13":0.06279500042636203,"14":-0.016233885190874903,"15":-0.0014272971361901168,"16":-0.11759665051546028,"17":-0.0008835538016242112,"18":-0.018115877761085135,"19":0.04627512329028371,"20":0.015236991843094062,"21":0.008761313336944116,"22":-0.048582813787868204,"23":0.025053260431960152,"24":0.10378459603437058,"25":0.07519104268586499,"26":0.042718728001788074,"27":-0.099611333796375,"28":0.04044950453645221,"29":-0.1036361553575377,"30":-0.09446287185477635,"31":-0.03389986840389553,"32":-0.0001481991949407933,"33":-0.22355104976811785,"34":-0.035768732386628296,"35":-0.07692834165055014,"36":-0.06150482561855819,"37":0.053049721265160915,"38":-0.16540246336003395,"39":-0.12772996187414037,"40":-0.11041272782208467,"41":0.05858429520897506,"42":0.03780055461278731}},{"sx":1,"sy":1,"depth":43,"w":{"0":0.06985809713824757,"1":-0.008379124520516444,"2":0.1061031826030596,"3":-0.036481935484096034,"4":-0.2806674235898899,"5":0.08720039074778126,"6":-0.3811530002777264,"7":0.03912294766106279,"8":-0.2321673909726164,"9":-0.11248813189982881,"10":-0.12331801887628768,"11":0.049681314065516805,"12":-0.07890903528478417,"13":-0.04002902212336997,"14":-0.18885789920530377,"15":-0.09819354325789385,"16":-0.13104138493750533,"17":-0.18379281993423116,"18":-0.2794378233348894,"19":0.03850553897024629,"20":0.07626604296087172,"21":-0.016931577814394846,"22":0.021814606335782888,"23":0.0297014477521441,"24":-0.04431806207504941,"25":-0.27269783171133594,"26":-0.029355362126033565,"27":-0.09091703300716543,"28":-0.16621444561924517,"29":-0.017137960634612984,"30":-0.01465887857274498,"31":-0.004316274971353573,"32":-0.021454954923939257,"33":0.008921829042345729,"34":-0.04816127727332038,"35":0.034444420866987374,"36":-0.1710223779359717,"37":0.17476834707647626,"38":0.33288207036729706,"39":0.22950075439160963,"40":-0.04638216824220587,"41":0.2642689423689744,"42":-0.028748754761263925}},{"sx":1,"sy":1,"depth":43,"w":{"0":0.019188121725454296,"1":-0.17549225823838477,"2":-0.09725027660993242,"3":-0.11815326982761837,"4":0.0672405139986188,"5":-0.1341677099805764,"6":-0.1287721852821008,"7":-0.15301521159765627,"8":0.1839810228295184,"9":0.004625549270432233,"10":0.30097734538169924,"11":0.05850772762318082,"12":0.3664722755575455,"13":-0.014022631938690654,"14":0.18570785308590296,"15":0.03247307217620912,"16":-0.3181430518341156,"17":-0.1939402312998694,"18":-0.40778800069063126,"19":-0.082079736347018,"20":0.04927729286226074,"21":0.022041961884846622,"22":-0.04308702551755738,"23":-0.18292815231824802,"24":-0.10173284297294818,"25":0.02645305183816016,"26":-0.08447371485986614,"27":0.14286904287282734,"28":0.04418478264369021,"29":0.1691425572712641,"30":0.10584324882383746,"31":0.16827854443840387,"32":0.10518168713903868,"33":0.02812296103873069,"34":-0.09017666606078606,"35":-0.3534655927418299,"36":-0.03640731008072323,"37":-0.36796919349880525,"38":-0.04002148214743116,"39":-0.07989644322248508,"40":-0.03617370537869441,"41":-0.01545119826558601,"42":-0.02130014009764237}},{"sx":1,"sy":1,"depth":43,"w":{"0":-0.13019488705040266,"1":-0.22198164755022914,"2":-0.07579658536402581,"3":0.0036336389289083814,"4":0.08172192635067284,"5":0.07550212411510905,"6":-0.0399813427640758,"7":0.09732375065359421,"8":0.06057761087730741,"9":0.3340757610251507,"10":0.38805885262138806,"11":0.07260387423454881,"12":0.31024973446833937,"13":0.0606368743569839,"14":-0.02404721404973508,"15":-0.010061816572716794,"16":-0.19094931218242134,"17":-0.020159948858044053,"18":-0.3220413481671548,"19":0.07902907409858657,"20":-0.07844988007173823,"21":-0.07457086691236317,"22":-0.08819514614809917,"23":0.04942291538182206,"24":-0.04232185674886233,"25":0.07524388967527261,"26":0.000803036817877239,"27":0.01832593475757678,"28":0.2858706243511498,"29":-0.21761645345416536,"30":0.1612213030232356,"31":-0.10159166848395132,"32":0.007164348413424029,"33":-0.35561730435725525,"34":0.020155535039059987,"35":-0.15011998760625248,"36":0.022403797511288355,"37":-0.35957181996919413,"38":0.009121661440474015,"39":-0.017880444789269614,"40":0.08163103564886601,"41":-0.1466923402294635,"42":-0.11186987376662295}},{"sx":1,"sy":1,"depth":43,"w":{"0":0.0962089801516521,"1":-0.09501599436146746,"2":-0.08937199404460823,"3":0.0004074343317981391,"4":-0.06493401088545978,"5":-0.2412087209349962,"6":0.061271398977668826,"7":-0.11192562971207398,"8":-0.11766542656061246,"9":-0.1352272210503154,"10":-0.11918519145343441,"11":-0.06593210635001163,"12":-0.14097813550470586,"13":-0.1582267723972541,"14":-0.003539922491599115,"15":-0.17250395136663257,"16":-0.14171871248410395,"17":-0.10466431277624325,"18":0.19700233753259633,"19":-0.02857263966418143,"20":-0.03495721816483944,"21":-0.08256289082683585,"22":-0.04004114963760438,"23":-0.024187192679476967,"24":-0.01469035078020469,"25":0.041351926112316806,"26":-0.10633893457152518,"27":0.15030085565844367,"28":-0.05654062732867471,"29":-0.11399131494837281,"30":-0.13027657016385244,"31":-0.21360416995539735,"32":-0.041078299009983534,"33":-0.052844954169651834,"34":-0.16676769035901576,"35":-0.12769461983473424,"36":-0.19981237838973318,"37":-0.1628986633846705,"38":-0.1118659498463386,"39":0.09346841932569451,"40":-0.005970712368192765,"41":-0.05958606379898444,"42":0.10039667404903134}},{"sx":1,"sy":1,"depth":43,"w":{"0":0.008449853904349148,"1":-0.024391392700446553,"2":0.001319192377913914,"3":-0.024841396983805754,"4":-0.07046634766529668,"5":0.056428900143156616,"6":0.13617658506550118,"7":-0.028975620718420095,"8":0.09787565669363772,"9":0.01315113706770455,"10":0.1380184230508742,"11":-0.03802210090347352,"12":-0.0028666566433169388,"13":0.027757375719587925,"14":-0.0027417955346674223,"15":0.14739498163142867,"16":-0.026696475355921102,"17":-0.03188198842917119,"18":-0.11718297850252117,"19":0.11437498250380213,"20":-0.08758169645868147,"21":-0.06793855375921158,"22":-0.09309301905583463,"23":0.018900794567258076,"24":-0.009635174520046457,"25":0.052291388588186445,"26":-0.08130016105826773,"27":0.017258255876504085,"28":-0.0786789483432603,"29":0.007335313133226163,"30":-0.045264368301394055,"31":0.08431557332641308,"32":0.07207455926542046,"33":0.22633364925783872,"34":0.09451228843709754,"35":0.00879884220927784,"36":0.14288268203554103,"37":0.0857469052374283,"38":0.009639620559690481,"39":-0.10333563840505192,"40":-0.045405794101281934,"41":-0.03569097837370442,"42":-0.0630587146826529}},{"sx":1,"sy":1,"depth":43,"w":{"0":-0.08458368315579483,"1":0.03395884239976718,"2":0.05870123767701372,"3":-0.07135883969509042,"4":-0.04248328276292986,"5":-0.21057882643726972,"6":-0.0857060155470293,"7":0.059584848894535615,"8":0.029284048755733344,"9":0.1293681156061179,"10":-0.06574253909823174,"11":-0.051478810949601564,"12":0.018712979412328894,"13":-0.10819624891127474,"14":-0.041177744239795186,"15":-0.11186652146443332,"16":-0.17586167880346124,"17":-0.07378559882175682,"18":-0.03882416023581803,"19":-0.05168414079817637,"20":-0.021462297929780345,"21":-0.226067153324612,"22":-0.05603650829654459,"23":-0.05964122706612475,"24":0.03750304830080079,"25":-0.10075097606973517,"26":0.03848861275378138,"27":-0.08729398793277397,"28":-0.05123182596724815,"29":0.0585179519424424,"30":0.03766639746424424,"31":-0.08408397324930493,"32":-0.13592621230210847,"33":-0.02269452230583783,"34":-0.15879980078385594,"35":-0.1087224187475313,"36":-0.10043537343444775,"37":-0.0887391297301764,"38":0.06394735224648186,"39":-0.19592573616599676,"40":-0.08747354903145325,"41":-0.15812299805528726,"42":-0.17704082417955305}},{"sx":1,"sy":1,"depth":43,"w":{"0":-0.10683924728485787,"1":0.049598725914096954,"2":-0.17175725983461076,"3":-0.10576422768180266,"4":-0.09279941043375378,"5":-0.05536742938429371,"6":-0.007110962607264277,"7":0.02524085213553919,"8":-0.0370415054991093,"9":0.06332206839622886,"10":0.08646510939541863,"11":0.16033604728935724,"12":0.17015192286684447,"13":0.11601396629841303,"14":0.06700068118719497,"15":0.033758324340817,"16":-0.019362998620876214,"17":-0.03174501838310516,"18":-0.11343601275667668,"19":0.08020845594863253,"20":0.08041801151055283,"21":-0.04619200438394083,"22":0.04291219025472765,"23":-0.0019740216706993488,"24":-0.054375786619344814,"25":0.1007428986927311,"26":0.05492949991890849,"27":-0.018286505493042633,"28":-0.034031615651277464,"29":0.044210333549517096,"30":-0.024439251934503622,"31":-0.04399528429012612,"32":0.12249901563897736,"33":-0.21962598700639488,"34":0.08729398796572525,"35":-0.14748465003539812,"36":0.13040668947674802,"37":-0.08559240964537168,"38":-0.038574330625225264,"39":0.005229325037469911,"40":-0.010912917841478941,"41":0.03886730161669735,"42":-0.10953197433565764}},{"sx":1,"sy":1,"depth":43,"w":{"0":0.06791145848067945,"1":-0.20107351672077353,"2":0.1561263364256388,"3":-0.026317422710201658,"4":0.05621720296775539,"5":-0.08855169532388364,"6":-0.045089977018910196,"7":0.0292771265815216,"8":-0.1396487992735967,"9":-0.010933082965940146,"10":0.05924182815947334,"11":-0.02338724092862319,"12":0.05752290419123272,"13":-0.050199660092729886,"14":-0.07122599380579923,"15":0.031728819644060234,"16":0.03128376913818576,"17":-0.02567930687861247,"18":-0.2008507039634529,"19":-0.08853779578939064,"20":-0.07083449329450127,"21":-0.042518562888975035,"22":-0.12434519847357588,"23":0.02030427967215284,"24":-0.07397088225178672,"25":0.04649626739042954,"26":0.025490646081532314,"27":-0.02786656029001944,"28":0.05105494411072154,"29":-0.2097909204709516,"30":0.12130564196713355,"31":-0.048910310340289316,"32":0.0019226821629061935,"33":-0.020785065990330472,"34":-0.0032014639106618136,"35":0.08001616449589362,"36":-0.0805346050435547,"37":0.19170827253324305,"38":-0.14193619358731438,"39":0.08128489794367336,"40":-0.023254075819540632,"41":-0.02471345546086402,"42":0.024934079655966265}},{"sx":1,"sy":1,"depth":43,"w":{"0":-0.1632449689553853,"1":-0.06917055409601035,"2":-0.016910013344325615,"3":-0.12700775674464412,"4":-0.023859078862611453,"5":-0.15886663676968568,"6":-0.08870948028376015,"7":-0.25624026400603933,"8":0.05872350282170154,"9":0.008220042996902256,"10":-0.01651605361288959,"11":-0.10427135340311945,"12":0.04698777083446427,"13":-0.14380347923180822,"14":0.15812407806816262,"15":0.03092159072804095,"16":0.05752315562233333,"17":0.00024417359698223473,"18":-0.11164941476480852,"19":-0.10314266217164683,"20":-0.09087441115761875,"21":-0.018727796022982583,"22":-0.01466221970247217,"23":-0.08302206487045802,"24":-0.0485930944447069,"25":-0.055628234797413675,"26":-0.11516439817564253,"27":-0.06283162518191539,"28":-0.06050309456201113,"29":0.02759733673093985,"30":-0.16549762178406405,"31":0.24528490923400642,"32":-0.12001969534226878,"33":0.04843016079082537,"34":0.03516751645542785,"35":0.13350560021551908,"36":0.07292589964421231,"37":0.05403029492937256,"38":0.011691911754988401,"39":0.16716104725478906,"40":-0.20975898830735765,"41":-0.09444196769313823,"42":-0.18676200878120677}},{"sx":1,"sy":1,"depth":43,"w":{"0":0.04112042307377339,"1":0.031176970484362566,"2":-0.034754817184962816,"3":-0.10853263500231129,"4":-0.034123148206530375,"5":-0.08362932933133897,"6":0.019061421404843425,"7":-0.14008348162410816,"8":0.02355956388407824,"9":-0.0432592375443763,"10":0.03603469647815401,"11":-0.05722072039240535,"12":0.060015500528919456,"13":0.103679164385518,"14":0.07961236137445639,"15":0.009430543823412962,"16":-0.008572890484366193,"17":-0.0756850227182717,"18":0.024447637538308385,"19":-0.0578685283921269,"20":-0.00010966717867964121,"21":-0.11146048545539888,"22":-0.07713830360302175,"23":0.02861595064140462,"24":-0.03661070887212148,"25":-0.07105229858781914,"26":0.09769237951479692,"27":-0.04496851993121281,"28":0.03524385977425628,"29":0.17589897076134817,"30":0.09920687324901875,"31":0.05593071414636941,"32":-0.12278866522540215,"33":0.036640322230751934,"34":-0.0196126469502638,"35":0.021347786069540478,"36":0.07645996651490802,"37":-0.14958412963475717,"38":0.10069396743359282,"39":-0.026750743022735092,"40":-0.014548567852714498,"41":0.09334401646683824,"42":-0.017097517960471476}},{"sx":1,"sy":1,"depth":43,"w":{"0":0.11881791979237567,"1":0.11582217067650369,"2":0.05561752937003261,"3":-0.02942869129834178,"4":0.11825896212407726,"5":-0.10995946663046989,"6":-0.09524134794047967,"7":0.09564625706013977,"8":0.07458453505007458,"9":0.11712093585480436,"10":0.13272896665372105,"11":0.09085886537572269,"12":-0.017435646875641055,"13":0.01100393225593782,"14":0.16819123798013086,"15":0.032714927749791685,"16":-0.06739517665935324,"17":-0.0505034837464046,"18":0.401721087999822,"19":0.07046926075940982,"20":-0.06473739880891966,"21":-0.057959654372015106,"22":0.10461504814395871,"23":-0.0011319150335260292,"24":-0.07206539298190655,"25":-0.024665707023516063,"26":-0.2295730952489147,"27":0.17626854937758235,"28":0.18909251597165416,"29":-0.0001549404203082795,"30":0.052445256063177265,"31":0.18413521610232247,"32":0.03414593591108504,"33":0.09126827637850647,"34":0.02533306662294893,"35":-0.024279472632874877,"36":0.0718882330509086,"37":-0.25836722853150484,"38":-0.08705256878678005,"39":-0.102094169226932,"40":0.17602160413389462,"41":0.0722943926825675,"42":0.055000603695352326}},{"sx":1,"sy":1,"depth":43,"w":{"0":0.1068165698653322,"1":0.11321238860023301,"2":0.12654567449397688,"3":0.03067922249906124,"4":-0.010415223882406382,"5":-0.007239065143554172,"6":-0.10768604725010106,"7":-0.060605496610888154,"8":0.09774362339965602,"9":0.016386819574278625,"10":-0.14858894726424912,"11":-0.0461557803986265,"12":-0.06426851648351506,"13":-0.07776027612566418,"14":-0.017614124551751854,"15":-0.021593548298859323,"16":0.05704915342765589,"17":-0.10069585205561864,"18":-0.2080948517668611,"19":-0.009084410001188245,"20":-0.09051255181374235,"21":-0.022432238985702544,"22":0.06489754314710422,"23":0.06661066599858789,"24":-0.052074700509886836,"25":-0.04026949231844049,"26":-0.028172924227019756,"27":-0.047242468577179,"28":-0.14960082867928554,"29":0.020132732720449582,"30":-0.09589032226287088,"31":-0.03363516450925555,"32":0.01155201856775643,"33":-0.02737190586708658,"34":0.24154541954104838,"35":0.07460821453615955,"36":-0.08913052226910552,"37":0.09847493639285262,"38":-0.049781100801242636,"39":-0.01717724251693258,"40":-0.03647870913726537,"41":-0.02445384545676581,"42":0.2475335459796541}},{"sx":1,"sy":1,"depth":43,"w":{"0":0.18136187186852235,"1":0.20314184581891756,"2":0.03601506320894657,"3":0.10873241017405758,"4":0.16580236551047553,"5":0.12624952622946226,"6":0.11968035415913296,"7":0.04362878084386716,"8":0.48506295717556663,"9":0.1671121241382443,"10":0.3183217130721554,"11":0.049433716895918065,"12":-0.05304798087513281,"13":0.04928805701250658,"14":-0.16502685763407163,"15":0.01171126860152038,"16":-0.2844726907856726,"17":0.03660731416684808,"18":-0.25618076105333054,"19":-0.053687582826051884,"20":0.016821936252442944,"21":0.03265906063891955,"22":0.15352143821481193,"23":-0.05183590569686084,"24":-0.021967152495468344,"25":0.0749703112022662,"26":-0.033063975292194306,"27":0.15982506872416616,"28":0.08908250942818713,"29":-0.24835451092114413,"30":0.04569797633857687,"31":-0.15864109683305558,"32":-0.06628176102227101,"33":-0.1837500801704478,"34":-0.17076348871489427,"35":-0.23061843880014626,"36":-0.12583484962017016,"37":0.020898445261257597,"38":0.03474727662651445,"39":0.03568271582922664,"40":0.03134423902655251,"41":-0.026441428643956173,"42":-0.0002628810964685487}},{"sx":1,"sy":1,"depth":43,"w":{"0":0.13486564503676277,"1":0.1189140666090364,"2":-0.3322704598060714,"3":0.019076901175324634,"4":-0.042280400149889596,"5":-0.04436969857105974,"6":-0.014667995169376048,"7":0.06561450211447992,"8":0.20856389902982234,"9":0.027523801945082,"10":0.050578516996412526,"11":0.21725920797037593,"12":0.002800453941628445,"13":0.12362299313675922,"14":-0.07442571157747312,"15":0.035285432347781316,"16":-0.11045030200242319,"17":0.09072222384871283,"18":-0.1160553527705764,"19":0.08209516770200653,"20":0.1663409433349873,"21":0.0536981506712177,"22":-0.14849539596855893,"23":-0.03810478286465503,"24":-0.05284154707183089,"25":-0.0015805292466338449,"26":0.13278168150796624,"27":0.05778999837713427,"28":0.17169963237350636,"29":0.13713243702400799,"30":0.12425631651156703,"31":0.08886336383862443,"32":0.08967225136377867,"33":-0.12975110544481436,"34":0.18185649517265465,"35":-0.1517618325162429,"36":0.06602792647649418,"37":0.06693092331348588,"38":-0.08756867133155051,"39":0.0187147781721267,"40":-0.015880411989809544,"41":0.015596601987629488,"42":0.045199185852704354}},{"sx":1,"sy":1,"depth":43,"w":{"0":0.0518295228074732,"1":0.11613474963936589,"2":0.0011639721379946677,"3":-0.002652012638806595,"4":-0.03235012547441234,"5":0.06823550988813938,"6":0.04942008069185778,"7":0.08460913210774272,"8":-0.19283064696771843,"9":0.06858762379020246,"10":-0.4710814346460093,"11":0.0553660390422069,"12":-0.18640049804783673,"13":0.05406777652296215,"14":0.060813955748701874,"15":0.23876917863139185,"16":0.3477511347876743,"17":-0.03017616976648649,"18":0.24674337499575127,"19":-0.07162086049821245,"20":-0.05172807006333854,"21":0.028825005291975642,"22":0.05128531643659375,"23":-0.026011942605555432,"24":0.0015947252285420169,"25":-0.028738938235628717,"26":0.1904515082342319,"27":-0.1796574461470614,"28":0.11232519145214183,"29":0.02325312277646229,"30":-0.057177093872005084,"31":0.1739949919950991,"32":0.009671604034229005,"33":0.2849412505141629,"34":0.07147064555647505,"35":0.06508563350749678,"36":0.01553446233085754,"37":0.20461314831413221,"38":-0.02429237642317363,"39":0.07922004790004518,"40":-0.0913995530223215,"41":0.035130748528174875,"42":0.11905645231260781}},{"sx":1,"sy":1,"depth":43,"w":{"0":-0.10856818476541866,"1":-0.11534248172962298,"2":-0.12588434263951487,"3":-0.06724185952413288,"4":-0.34668851997310285,"5":-0.11733847952546134,"6":-0.3935959176206712,"7":-0.21598053656093863,"8":-0.3125822561491855,"9":-0.3081358262955897,"10":-0.44902615221530173,"11":-0.15590993422100302,"12":-0.42937540708869604,"13":-0.11293998579750915,"14":0.1376960074020213,"15":0.04495096022634137,"16":0.5292898586491483,"17":-0.060107636712068147,"18":0.05487800147704873,"19":-0.13212360513645852,"20":-0.18221606456126113,"21":-0.004807644497795698,"22":-0.02079310909356117,"23":-0.1538445283984686,"24":-0.15957583063343822,"25":-0.1791160342138405,"26":-0.15657477909762188,"27":-0.1891394245141947,"28":-0.2184236816142061,"29":0.45806845276075964,"30":-0.05831395679628999,"31":0.45968100291688574,"32":-0.17148259044679037,"33":0.4028594751910621,"34":0.05593078002259511,"35":0.3039928753129097,"36":0.0004093234582067007,"37":0.07357127988249727,"38":0.25354700310884803,"39":0.28500756774068237,"40":0.26022139687157625,"41":-0.21708630739494192,"42":0.24182362587352554}},{"sx":1,"sy":1,"depth":43,"w":{"0":-0.1933388107073458,"1":0.008290935738316768,"2":-0.14350822033444574,"3":-0.09038381160297584,"4":-0.13025460724130195,"5":0.02025881114700397,"6":-0.2333958408614397,"7":-0.24089021532549534,"8":-0.06184003986206334,"9":0.0586598034822228,"10":-0.09190884075576254,"11":0.07223662055187388,"12":0.20008966478100362,"13":0.08945013293587187,"14":0.09096864607154823,"15":0.05516937792986791,"16":0.2939670022204608,"17":-0.05415018832275946,"18":-0.012910707191693488,"19":-0.14225147244956285,"20":-0.07679413283577392,"21":0.034918771422040445,"22":-0.05384634162230843,"23":-0.11299453858251408,"24":0.025123201496931234,"25":0.08205136716004491,"26":0.06866326099933805,"27":0.013930939218705647,"28":0.030053964303286333,"29":-0.00784872294561739,"30":0.0534496410240251,"31":0.20430943900874884,"32":-0.01844519275070312,"33":0.054959415315469745,"34":-0.013608615988581072,"35":0.1814491900522298,"36":-0.015421745014013038,"37":-0.03252353312830932,"38":-0.07949333621495508,"39":-0.04264668678403351,"40":-0.04744969947804755,"41":-0.04986142249602575,"42":-0.05991517391994981}},{"sx":1,"sy":1,"depth":43,"w":{"0":0.08622492277615826,"1":-0.04410910143891915,"2":-0.04438043669505514,"3":-0.04414159838579666,"4":-0.11800339766112543,"5":-0.0198568159939724,"6":0.0009929328268339825,"7":0.12495093776846437,"8":-0.03635051669869223,"9":0.06694631163376101,"10":-0.13745965536550808,"11":-0.013254879171687613,"12":-0.014999396235334455,"13":-0.011529850879896726,"14":-0.01701791064145843,"15":0.08625056683192527,"16":-0.12574670753092665,"17":-0.08550109200257752,"18":-0.027740586183956077,"19":0.18529848893113646,"20":0.024339111612799388,"21":0.01465816015459152,"22":0.0030870181730491882,"23":0.06672252109214821,"24":-0.0026904033671940955,"25":-0.03159728370443704,"26":-0.062143058125318576,"27":-0.17146335722986278,"28":0.017121983191778444,"29":-0.09193430420913391,"30":0.054553894666986555,"31":-0.054399067218172996,"32":-0.058590797869199934,"33":-0.020525865832013917,"34":-0.0664229001954629,"35":-0.09451566002839765,"36":0.0786440422686765,"37":0.03951683753182764,"38":-0.043001443095738806,"39":-0.000236284027407847,"40":-0.13071835436437268,"41":0.07381914263534663,"42":0.034095451959161145}},{"sx":1,"sy":1,"depth":43,"w":{"0":-0.2427883161234251,"1":0.15308132683754225,"2":0.08778705669779868,"3":0.16562961513883734,"4":0.2936614955657578,"5":-0.08207379280283095,"6":0.4753174945947771,"7":0.15101874890047856,"8":-0.22310051065599582,"9":-0.0030266955954731797,"10":-0.35218902670884605,"11":0.016078842421511124,"12":-0.39261918072733437,"13":-0.09800575479286727,"14":-0.18932417492548312,"15":-0.003312839331348383,"16":-0.0006305973986391003,"17":-0.06788168116251378,"18":-0.2865119753145407,"19":-0.21177829726201985,"20":0.04843522621502119,"21":0.003242731711464188,"22":0.1706508053314916,"23":0.26370527049736214,"24":0.02018448623479404,"25":0.24358169672458624,"26":0.31100515239889254,"27":-0.27219828471996266,"28":-0.04697210459012745,"29":-0.30332563559817094,"30":-0.004522888024782444,"31":-0.17064251518609838,"32":-0.05914058264645849,"33":-0.1054918915259073,"34":0.08307578427650837,"35":0.038472535368841314,"36":0.16279747708608255,"37":0.4595003213437375,"38":-0.08529051464547849,"39":-0.08585059066447695,"40":-0.05963460015283882,"41":-0.05498429819259893,"42":-0.102968811215588}},{"sx":1,"sy":1,"depth":43,"w":{"0":-0.3644904479504587,"1":-0.061374766060705285,"2":-0.13443550850070504,"3":0.12581343603959272,"4":-0.198137135893899,"5":0.010224458280692744,"6":-0.2724355009011262,"7":0.16725031934499318,"8":0.09947579494713332,"9":0.14005524478130812,"10":0.16535020949050636,"11":0.15449587682616875,"12":0.028829962945499426,"13":0.15592054513587675,"14":-0.040406614182442874,"15":-0.02563015249299329,"16":-0.08645645516843053,"17":-0.06288500644352409,"18":0.13078660886192964,"19":-0.21525948759740768,"20":0.004294735370460724,"21":-0.1687891976556393,"22":0.031197305869777342,"23":-0.15815399497622795,"24":0.13094229705870067,"25":-0.24262102846079972,"26":0.06103148635201156,"27":0.03773746684947252,"28":-0.012535660665337114,"29":0.04429382788891415,"30":0.11526287497593964,"31":0.0903224549834016,"32":0.20688052098075346,"33":0.1985773043478213,"34":0.06663916391184792,"35":-0.05715479704400674,"36":0.04413912732794011,"37":0.8257508813221025,"38":-0.026169391834110274,"39":0.08709298339687208,"40":-0.09926523183793608,"41":-0.12723834824438093,"42":0.12488799092019835}},{"sx":1,"sy":1,"depth":43,"w":{"0":0.02961969860792135,"1":0.0819082861315757,"2":0.026788283554714368,"3":0.003480018932860923,"4":0.06562350750198608,"5":-0.06733729293456361,"6":-0.040619317452365945,"7":0.0467052164094482,"8":-0.039265306041239255,"9":-0.021374484648668264,"10":-0.019693384371599988,"11":0.055808955185352754,"12":0.041904678010899296,"13":0.0473216752157396,"14":0.0694140251835815,"15":0.0629545429439671,"16":-0.014466971514360603,"17":0.17141020629066095,"18":0.05871267305650581,"19":0.06032422351480358,"20":-0.13941649423584276,"21":0.009277821022429635,"22":-0.05993441681115895,"23":0.06935104799150817,"24":-0.012767300234772048,"25":-0.1169630090706848,"26":0.04841472398329874,"27":0.046518888011147716,"28":-0.18106289539538042,"29":0.07692468431987078,"30":0.0668271483687392,"31":-0.033775555108696745,"32":0.17957597643046044,"33":-0.11836015990311617,"34":0.11133692319183473,"35":-0.07496468431516462,"36":0.13595508920361657,"37":-0.14829873592474574,"38":-0.05394174579358913,"39":-0.07033930426181441,"40":-0.05275685686274871,"41":-0.09128737330299726,"42":0.15039779848025842}},{"sx":1,"sy":1,"depth":43,"w":{"0":0.016822861894448028,"1":-0.08063461688165593,"2":0.024278326853231225,"3":-0.12867137556618893,"4":0.02360329125746764,"5":0.06518055015784495,"6":0.18936548777454862,"7":-0.11623760537725497,"8":0.0018767937344932532,"9":0.08709229738709888,"10":0.004717204892911798,"11":0.08416185049954042,"12":-0.12355452829284605,"13":0.02955986908113625,"14":-0.15371031076666694,"15":0.07541284175105908,"16":-0.145104966821027,"17":0.12415545606409861,"18":-0.08874679016288271,"19":0.017743278842350524,"20":0.05624255536045811,"21":0.020005793721915553,"22":-0.1588206561249644,"23":0.16007663065077618,"24":-0.08831747400790295,"25":0.11909344148363965,"26":0.03174452880005259,"27":-0.012455447842987164,"28":-0.14393162474797788,"29":0.04808238325882097,"30":-0.05399231812902867,"31":0.003876069526817639,"32":0.1354485895175784,"33":-0.08098487228202543,"34":-0.09884032772778562,"35":-0.12776216701934953,"36":-0.04663782698287633,"37":0.15551248211346616,"38":-0.16128347909731597,"39":-0.031210719533748967,"40":-0.037763607264170364,"41":-0.07868475546318489,"42":0.13609873560962757}},{"sx":1,"sy":1,"depth":43,"w":{"0":-0.3011082070326069,"1":0.3943268482042305,"2":-0.17636441682907827,"3":0.09768704334119607,"4":0.059168912301848446,"5":0.2458812022350674,"6":0.036026897694577745,"7":0.2560526601466396,"8":-0.5068389968960767,"9":0.10085303434165448,"10":-0.4449123427206054,"11":0.10618467936301676,"12":-0.2329996143577048,"13":-0.01709923063725532,"14":0.19386174105016893,"15":0.1997008210460605,"16":0.535986084594345,"17":0.01627343951027229,"18":0.3977290505028214,"19":-0.09642201734149511,"20":0.21881065831917318,"21":-0.10158294674499001,"22":0.19712815189838748,"23":-0.012825430836741446,"24":0.19011474768346717,"25":-0.02803541040201004,"26":0.16376535270420872,"27":-0.18545328598470495,"28":0.05006303594852239,"29":0.24778713629831556,"30":0.05305596573438782,"31":0.43292010389648633,"32":-0.031168693142739987,"33":0.4639653368355391,"34":-0.07295663893241061,"35":0.40641377849092747,"36":0.011338460273372084,"37":0.21533784806165376,"38":0.037254433732976655,"39":-0.024622649342819953,"40":-0.03550425392684907,"41":0.04863989974417978,"42":-0.11081571734644106}},{"sx":1,"sy":1,"depth":43,"w":{"0":0.26644364570585083,"1":-0.12473480262485549,"2":0.23354428220725504,"3":-0.12283182033516359,"4":0.01917797304723621,"5":-0.19679474521918755,"6":-0.12951694285517054,"7":-0.2665127150788144,"8":-0.027266533728190556,"9":-0.0564326684128778,"10":0.2559434560567417,"11":0.3609157387730979,"12":0.2688328167465671,"13":0.38876698299658163,"14":0.9149146532479422,"15":0.5142408149776746,"16":0.9029281345200074,"17":0.6392921340357198,"18":-0.02188801379616247,"19":0.2066001690521856,"20":-0.008955938470275634,"21":0.056238817694986,"22":0.04118613742960046,"23":0.23729589713586988,"24":0.062428955835768254,"25":0.11450918314633426,"26":-0.025071788133547625,"27":-0.03575603893882167,"28":0.1253192476422653,"29":0.0042881774147496875,"30":0.09417239425574159,"31":0.10766402464695743,"32":0.032743179034203866,"33":0.09267769757498262,"34":0.14933868599918204,"35":0.11703972993420465,"36":0.352531222304465,"37":-0.015018827044793872,"38":-0.2144264764076242,"39":-0.24174244133605757,"40":-0.23000744724415678,"41":-0.27025840321592626,"42":-0.2436907565920226}},{"sx":1,"sy":1,"depth":43,"w":{"0":-0.0794739308643078,"1":-0.183688703907493,"2":-0.049894808007795506,"3":-0.10248655838079575,"4":0.10244051016861226,"5":0.08806438684796959,"6":0.34368235141947145,"7":0.019925044591920786,"8":0.09682043225109872,"9":0.09253747832103183,"10":0.06431928249151002,"11":0.09414845012048861,"12":0.030110975227692044,"13":0.022062970930871006,"14":0.13932927957117883,"15":0.09818526276245255,"16":0.052259159992719455,"17":0.15176350801139837,"18":0.16532547366391748,"19":-0.07768355761259393,"20":-0.018366549444755326,"21":-0.060062492616198136,"22":0.009270806270859947,"23":0.10562806775450431,"24":-0.2028412098291298,"25":-0.03909320018660721,"26":0.12042978726099335,"27":0.13164865972340112,"28":-0.08399941618027154,"29":0.31569837248060334,"30":0.06586065371965964,"31":0.2470718838332972,"32":0.12938070026640588,"33":0.0131637709644163,"34":-0.03185863585331642,"35":-0.09845723435475107,"36":0.08602601334341932,"37":-0.08564153859191553,"38":-0.07305802728513143,"39":-0.08614755440764918,"40":-0.029894666737567514,"41":-0.06057469348966448,"42":-0.10189034926973276}},{"sx":1,"sy":1,"depth":43,"w":{"0":0.018980519000287924,"1":0.015900842866081292,"2":0.07727276362368374,"3":0.03993561517789378,"4":0.051539178901133305,"5":0.0545619374817374,"6":-0.22420311333690357,"7":0.09433041266652253,"8":-0.7214799271399787,"9":0.02136351797270197,"10":-0.5192241080431521,"11":0.045375727116319035,"12":-0.5147018226699015,"13":-0.17112323319724687,"14":-0.3512308868606122,"15":-0.01731880372660604,"16":-0.5325915121290034,"17":-0.02065431717339672,"18":0.1169462130881406,"19":0.09596829736495176,"20":-0.009492912433346025,"21":-0.08109112681248855,"22":-0.001869608075462947,"23":-0.04702438333078734,"24":-0.037689856364516314,"25":-0.2823960141039331,"26":0.042116331078388615,"27":-0.20581594629494793,"28":0.001814603100802568,"29":-0.5954929936338342,"30":-0.0865585835339811,"31":-0.35082148690972836,"32":-0.007140492530757519,"33":-0.4304044616478659,"34":-0.050698300604758634,"35":-0.40954939109853544,"36":0.0749152370213757,"37":-0.03815723536876021,"38":0.02169090630106725,"39":0.03386303913234739,"40":0.017471684817902407,"41":0.009248604071995204,"42":0.08074101772142137}},{"sx":1,"sy":1,"depth":43,"w":{"0":-0.19469005024951547,"1":-0.4703195065597393,"2":-0.362929068438973,"3":-0.2539246257087006,"4":-0.5199352450728061,"5":-0.29383584293650866,"6":-0.9433802037569409,"7":-0.34478460681277556,"8":-0.5473928846270746,"9":-0.4665817951974778,"10":0.09158680069473173,"11":-0.28010782742432705,"12":0.027245486852509403,"13":0.07494941778493881,"14":-0.035282993779686384,"15":-0.09642646404474843,"16":0.31002100113407716,"17":0.10026709556422944,"18":-0.06813609588993445,"19":-0.09032542824845717,"20":-0.28031593691651174,"21":-0.10912679534095193,"22":-0.056080826476347996,"23":-0.22074360922203987,"24":-0.05611503803114646,"25":-0.3821702781474356,"26":-0.15194734676322016,"27":-0.21621601080240327,"28":-0.17068398518474018,"29":0.10057349261676249,"30":-0.03520502192807604,"31":0.0760132570430523,"32":0.003769749601871515,"33":-0.13912002801654783,"34":-0.09631374012908388,"35":0.12521580326818887,"36":0.09914252645608722,"37":-0.05311034100051267,"38":0.3135654267524109,"39":0.3084008185934668,"40":0.31445162882763783,"41":0.2632146207164392,"42":0.3023627246022182}},{"sx":1,"sy":1,"depth":43,"w":{"0":0.19682180550978037,"1":0.33474154859068206,"2":0.18830633357128848,"3":0.2505223228541871,"4":0.07745212831261762,"5":0.21671565622468947,"6":0.03157631591648447,"7":0.11023872040326436,"8":-0.00841528282206027,"9":-0.03262753693317162,"10":-0.01143761740972133,"11":-0.06412049852276003,"12":-0.11502736443521265,"13":-0.03162263844763618,"14":-0.2542120077964595,"15":0.021126246553872557,"16":-0.0876474410590742,"17":-0.08328609658732078,"18":0.03887859139212054,"19":0.09679691189197437,"20":0.1837427152592651,"21":0.08496481839932277,"22":0.12850913894380522,"23":0.003298442211185692,"24":-0.029395458562769053,"25":0.06177910952068445,"26":-0.07028760864004958,"27":-0.026097798506311384,"28":-0.09915877569362223,"29":0.04918488534803099,"30":0.19082484787632545,"31":-0.09846099639579141,"32":0.07693763698237194,"33":0.020915645344803235,"34":-0.08267711362342657,"35":-0.2666886153724532,"36":0.04275398546821906,"37":-0.08092324642022634,"38":0.06740233306466793,"39":-0.1452495268127509,"40":0.014695945873648324,"41":-0.01607192146220201,"42":0.11641504795961156}},{"sx":1,"sy":1,"depth":43,"w":{"0":-0.3080075561095908,"1":-0.3330166835527328,"2":-0.005954179937047477,"3":-0.10711693279834696,"4":0.12268495941898208,"5":0.05100115697452856,"6":-0.08267868851425786,"7":-0.006421790311951303,"8":-0.7438121079852025,"9":-0.2516309162796464,"10":-0.746560296625879,"11":-0.12317976525491231,"12":-0.5590154464026804,"13":-0.2849700772914347,"14":-0.18561342662403146,"15":-0.2796313809765051,"16":0.1038752568469077,"17":-0.20300570223036646,"18":0.7955843028829656,"19":-0.06432307251796246,"20":-0.225176523200765,"21":-0.12091478870859784,"22":-0.21134684365693532,"23":0.07301890205851562,"24":-0.08898810428965563,"25":-0.2178309980127917,"26":-0.2152812009406728,"27":-0.11986136304955092,"28":-0.19953210246732175,"29":0.3405809099846479,"30":-0.035876769604234346,"31":0.5372670387165438,"32":-0.0394729179803263,"33":0.46352451338055695,"34":-0.04291241785718978,"35":0.26151478261439615,"36":-0.053683120021607224,"37":0.08250031977803758,"38":0.2457281555903335,"39":0.26694978049371804,"40":0.33091670274957596,"41":0.3007781952750752,"42":-0.10324793776842661}},{"sx":1,"sy":1,"depth":43,"w":{"0":-0.0116838556746822,"1":0.17317145051525826,"2":-0.023812692996003935,"3":0.06351721178714359,"4":-0.07000585738074838,"5":-0.03151678629898078,"6":0.01488362715262384,"7":-0.0019095266377736324,"8":-0.09684531091551514,"9":-0.11453140348544161,"10":-0.03980581452626908,"11":-0.0024605521963718424,"12":-0.12798766894677135,"13":-0.002750402337390122,"14":0.05285275897618097,"15":0.017108055332350127,"16":0.31676273188525794,"17":-0.04859766688138654,"18":0.14068131664105113,"19":0.10168141449711844,"20":-0.006504804842296278,"21":-0.06417957716328104,"22":-0.07102573926725379,"23":-0.025094750067745517,"24":0.09281215856442662,"25":0.03662000399668373,"26":0.09833827154600187,"27":-0.02032428265518327,"28":-0.03899522555310264,"29":0.07864914894369113,"30":0.03467866831933021,"31":0.1091321421168783,"32":0.1337525213501996,"33":0.19447790141667137,"34":0.013217776000396636,"35":0.21700568928926534,"36":0.07593014912753356,"37":0.17831482898203377,"38":-0.026747210588654407,"39":-0.04199068138896292,"40":0.05360732426600111,"41":0.07511791442352686,"42":-0.07455252134192977}},{"sx":1,"sy":1,"depth":43,"w":{"0":-0.2448872506771517,"1":0.12731713952751628,"2":-0.026938225809964342,"3":-0.19846285618800905,"4":0.09848031313776835,"5":-0.12779611986679534,"6":0.10126910064073798,"7":-0.20657186344203393,"8":0.15147233188390838,"9":-0.3247772665219517,"10":-0.45743392193106763,"11":-0.0808852407154963,"12":-0.26872005929273945,"13":0.015955915541815892,"14":-0.183802476406578,"15":-0.0025765438840587565,"16":-0.12119476471525512,"17":-0.12840229594409758,"18":-0.19539051513101563,"19":-0.22447984210706826,"20":0.12895603638312342,"21":-0.06643317509881273,"22":0.07560688115344438,"23":0.06685699729896864,"24":0.06288660800365649,"25":0.2010731077725587,"26":-0.06644132519614535,"27":0.07533004335442313,"28":-0.14200063229417736,"29":-0.3029018759462314,"30":-0.10672275875653671,"31":-0.04862588026837505,"32":-0.05804004055830256,"33":-0.010048169533550923,"34":-0.041988367993934336,"35":-0.14313176657764023,"36":-0.013900497721984869,"37":0.2698884049166896,"38":0.03880406450435175,"39":-0.03760336154783052,"40":0.08771216999402931,"41":0.08190118432185627,"42":0.19181305429712464}},{"sx":1,"sy":1,"depth":43,"w":{"0":0.182516814135741,"1":0.1907208068594495,"2":0.09279593751626013,"3":0.28195462034596896,"4":-0.030573550170854294,"5":0.29849816497469034,"6":-0.2530738501499961,"7":0.32375826370970723,"8":0.26329183425739444,"9":0.24713376472076276,"10":0.7718490874771019,"11":0.3506027913583761,"12":0.6199348160244749,"13":0.3102016052887619,"14":0.2146123940746406,"15":0.0073910785853176526,"16":-0.0039034538964240815,"17":-0.08022808984406221,"18":0.07262865853140943,"19":0.02908668061039923,"20":-0.058252304466511064,"21":0.037048270538796474,"22":0.07909606238534825,"23":-0.0067896245829122456,"24":0.06424934205977186,"25":-0.13251377650157298,"26":-0.028104625679695322,"27":0.12493251803654724,"28":0.020846886792574036,"29":0.6034877707378323,"30":-0.007692831121860049,"31":0.18330269761093892,"32":0.13066818769139224,"33":0.06254229755201468,"34":0.05170637430746595,"35":-0.10994529344615663,"36":-0.05518435362677435,"37":-0.1935650599996533,"38":0.006359475538783686,"39":-0.008866919620462396,"40":0.01839175203011408,"41":-0.0346573267159397,"42":-0.030373281217575997}},{"sx":1,"sy":1,"depth":43,"w":{"0":-0.03154038551620354,"1":0.05963700351458758,"2":0.08779184676036257,"3":0.06546202301602595,"4":-0.09325517234777192,"5":-0.20294255610723916,"6":-0.19980121643111268,"7":0.04422751988582553,"8":-0.20412158555259396,"9":-0.04363536437391348,"10":-0.21927194632344588,"11":0.04805452894099891,"12":0.06994064816899921,"13":-0.05141227118664616,"14":0.15415770822547548,"15":0.023756801876209994,"16":0.27238714217441024,"17":-0.1612013682763472,"18":-0.03948575565991471,"19":0.059705732712655446,"20":-0.15157907339744775,"21":0.0035864888164502335,"22":-0.1070034132725668,"23":0.2067100635496477,"24":0.02221866111295458,"25":0.16091009032532072,"26":-0.12914304901318394,"27":-0.12578851699345292,"28":0.0736867710880851,"29":-0.09849164041536426,"30":0.014191605011814368,"31":-0.07608280857864443,"32":0.008084624759750896,"33":0.13296963307986415,"34":-0.026602910333092176,"35":0.08062430596420955,"36":-0.03963185845854048,"37":-0.02012220968374246,"38":-0.023290244273741045,"39":-0.03402147845361211,"40":-0.09619232277308137,"41":0.061509974493199934,"42":0.03662645380559128}},{"sx":1,"sy":1,"depth":43,"w":{"0":-0.18537735845514017,"1":0.13391411922141158,"2":-0.03108817800353905,"3":0.2312405979616598,"4":0.0048325453396461755,"5":0.22313888006014498,"6":-0.018364692094429192,"7":0.10845152615729678,"8":-0.3064749720033557,"9":0.019666203509046177,"10":-0.27524066580788237,"11":-0.002975056251627681,"12":-0.06325135432217761,"13":-0.2046843017174168,"14":-0.09330799114859116,"15":-0.1285791979452823,"16":-0.0976871302786924,"17":-0.18118269603325401,"18":0.058792633012614066,"19":-0.18418752385362683,"20":0.19437777466186312,"21":0.0156783368002467,"22":0.05945453516447351,"23":-0.021561441061720688,"24":0.034664278059501605,"25":-0.06993581652465054,"26":-0.06807019406600208,"27":0.043259100094370666,"28":-0.0880926489019071,"29":0.21007791352255542,"30":-0.11140611673311927,"31":0.10336807703358321,"32":-0.11805868219629848,"33":0.14748026931782038,"34":-0.0098859247428763,"35":0.08303807113171877,"36":-0.13156674208838673,"37":0.07473506846458244,"38":0.0527509412291571,"39":0.03989104374291943,"40":-0.17099966119129148,"41":-0.11661244847594568,"42":-0.05895300938261194}},{"sx":1,"sy":1,"depth":43,"w":{"0":-0.19201956965984307,"1":0.04304913487541408,"2":-0.11437605973315572,"3":0.06277667255701044,"4":0.11710269637099999,"5":0.02394853742541573,"6":-0.22753707780390187,"7":0.10410291160785495,"8":-0.46624155219628916,"9":0.05129366086854054,"10":-0.40206490628699726,"11":-0.2294982138849184,"12":-0.4633177003503445,"13":-0.12048791633616705,"14":-0.3815736753737822,"15":-0.15492795140832905,"16":-0.2610109198725214,"17":-0.07500048969483854,"18":0.3654969588122283,"19":-0.2774233515144559,"20":0.0855869923644047,"21":0.003859336108462564,"22":0.17567939474377176,"23":-0.1210655074192804,"24":-0.009231876614532205,"25":-0.04678384195773198,"26":0.009105010413380538,"27":0.001952944340027507,"28":-0.01962564495674061,"29":0.15186655124247975,"30":0.013630772325968234,"31":-0.33000374346732414,"32":0.02862431876003228,"33":-0.35844161667804975,"34":-0.0918569946780089,"35":-0.3018019025680181,"36":-0.09859605828881915,"37":-0.5471147308062607,"38":0.05881242570619471,"39":0.09260155440673652,"40":0.06525735484832004,"41":0.08108399001941793,"42":0.05836203006389924}},{"sx":1,"sy":1,"depth":43,"w":{"0":0.18014397889495357,"1":0.10772334697179088,"2":0.03356523112710762,"3":-0.002029789513189002,"4":-0.08684518712974477,"5":0.15272694323502217,"6":-0.06759758601540378,"7":-0.0340452711992928,"8":0.07059897917790336,"9":0.12095373935223823,"10":0.0662059306362535,"11":-0.002439390032996683,"12":0.12635952689324395,"13":0.09527767705994163,"14":-0.16239224430815521,"15":0.08482640713176129,"16":0.016436076255694945,"17":0.06825658880979697,"18":0.054885772575763304,"19":-0.10463497423007474,"20":-0.10035320500781784,"21":-0.048070198942715636,"22":-0.0010915198848405817,"23":0.0423775202607905,"24":0.12901069550915795,"25":0.15743916288270424,"26":-0.023676307028935906,"27":0.020136440464991842,"28":0.054347551396894275,"29":0.07107947956778181,"30":-0.03557526824318551,"31":-0.054265864237968336,"32":0.09822894699670262,"33":-0.0662407221709254,"34":0.1077999941165368,"35":-0.027299819932366763,"36":-0.06809267313528368,"37":-0.10611431084586193,"38":-0.13691150209823225,"39":-0.061241757342920526,"40":-0.04501352429405143,"41":0.04284622222057032,"42":0.07602810573993872}},{"sx":1,"sy":1,"depth":43,"w":{"0":0.19172720733725637,"1":0.09365359002460673,"2":0.027000219339923304,"3":0.16563775259900365,"4":-0.12924148177258474,"5":0.15676463552634334,"6":-0.7574705846212588,"7":-0.15755361368755397,"8":-0.757114720575568,"9":-0.42592395141106315,"10":-0.15149083435169158,"11":-0.3401645598370928,"12":-0.30826074170301127,"13":-0.18253196280199452,"14":-0.2166622100722723,"15":-0.24248283928486492,"16":0.0036374886694016733,"17":-0.3375581590508014,"18":0.03293446512483685,"19":0.02742793104188795,"20":0.06735495109026693,"21":0.0830097956040264,"22":-0.006826359190213267,"23":0.021789565088767587,"24":-0.14132103537679774,"25":-0.4900481010639465,"26":-0.09943710085804132,"27":-0.10643825416358568,"28":-0.29818845880045197,"29":-0.10881173763848664,"30":-0.18648367480114164,"31":0.13754419720237035,"32":-0.15200764111274603,"33":0.07839730384714216,"34":-0.01572640300956971,"35":0.14117979627419341,"36":-0.2065634280637335,"37":-0.025546093176198336,"38":0.37177998125232675,"39":0.3259469323620014,"40":0.48086266770274605,"41":0.3057296379664127,"42":0.29092127204093765}},{"sx":1,"sy":1,"depth":43,"w":{"0":-0.09625188778945938,"1":-0.070667708794057,"2":-0.10874505661178904,"3":-0.11296616194449585,"4":-0.07123089537061297,"5":-0.08979558280110803,"6":0.1608658756436648,"7":0.08280646744991933,"8":0.2517464597521455,"9":0.16710329320145825,"10":0.09554304684751276,"11":0.06752532234697571,"12":0.12183027297766641,"13":0.013452232122409315,"14":-0.02280154817764036,"15":0.024458913510219733,"16":-0.1051480437130523,"17":-0.05689502085582139,"18":0.23090480757510928,"19":-0.18826904410142373,"20":0.01590104919440938,"21":-0.11347508841393177,"22":-0.0011010277891187335,"23":0.04970440090441288,"24":0.09057407974919408,"25":-0.046660961449882195,"26":-0.04080919933640516,"27":0.01946417346404886,"28":0.10803359445654874,"29":0.3216756162045571,"30":0.11756770557353823,"31":0.10169773999768159,"32":0.11926976070695558,"33":-0.002155664412172649,"34":0.03220482208366471,"35":-0.2874278850124336,"36":0.09468305610847905,"37":0.05917735487956014,"38":0.009846315194176966,"39":-0.06758249351422994,"40":0.035354066984468434,"41":-0.009986335226663237,"42":0.023804947691971324}},{"sx":1,"sy":1,"depth":43,"w":{"0":0.2067886034315895,"1":-0.03306120910741525,"2":0.24208477589483915,"3":0.18062123683810563,"4":0.09388248857547618,"5":-0.03850572002102906,"6":-0.16250657595245868,"7":-0.11452086674985593,"8":-0.168460931698948,"9":-0.22573145278415538,"10":-0.05201858805844801,"11":-0.055722868083029065,"12":0.050269763611675816,"13":-0.23121572793347447,"14":0.020722143737933272,"15":-0.10903515582358364,"16":0.048183505668578014,"17":-0.15718070650291036,"18":-0.4985872709020466,"19":-0.026000339087187546,"20":-0.08018480502619026,"21":0.1586863656260522,"22":-0.006716225678319344,"23":-0.0011162039278265696,"24":-0.05432524148245717,"25":0.013193934284489589,"26":-0.07662547562011023,"27":-0.16861282825807372,"28":-0.2074134061758489,"29":-0.1412582957638377,"30":-0.01648468061472278,"31":-0.06583541578069876,"32":-0.09486274930687288,"33":0.02131851613877938,"34":-0.14740968714602476,"35":0.08483945364586994,"36":-0.008976409111622095,"37":0.18804966104855586,"38":0.2827899483539135,"39":0.2203305390359171,"40":-0.1729552849926263,"41":0.1684308931603925,"42":0.1263550907594354}},{"sx":1,"sy":1,"depth":43,"w":{"0":-0.17756821940968848,"1":-0.031747297069257094,"2":-0.08049677406201823,"3":-0.006718160463540691,"4":0.02749532208856776,"5":0.11138998001186433,"6":-0.07028630406670548,"7":0.13205013175592176,"8":0.010254919487778895,"9":0.05025028909639566,"10":-0.0497522411091754,"11":-0.014556944462685423,"12":0.09937795963508585,"13":-0.0188067563903544,"14":-0.016992732743873633,"15":-0.07395636962051647,"16":0.04559009474122056,"17":-0.055928939293690076,"18":-0.12600965111072338,"19":0.0011389863522672653,"20":-0.03022634230844594,"21":-0.18012327941268613,"22":-0.0477104139520279,"23":0.06273286864120928,"24":0.026471872960511306,"25":-0.04293586807768553,"26":-0.10406836035116913,"27":0.04367770949473014,"28":-0.052672131939259494,"29":-0.013906599891412732,"30":-0.01059656577020012,"31":0.03465920195360725,"32":-0.04424609778589354,"33":-0.09023789256697808,"34":-0.06002156662437103,"35":0.0006911378440821918,"36":-0.09673672953914286,"37":-0.016475704218437342,"38":-0.21314884237538104,"39":-0.15865125255252369,"40":-0.007632720718714757,"41":-0.015153955083113468,"42":-0.2003386480674364}},{"sx":1,"sy":1,"depth":43,"w":{"0":0.1727241393829619,"1":0.10538696133037836,"2":0.0778136458537498,"3":-0.008234149862350364,"4":-0.06508188603914482,"5":-0.08614537779524395,"6":-0.19463854181636492,"7":-0.14853759626766258,"8":-0.13129585052614806,"9":-0.19868350889510156,"10":0.0588706204381718,"11":-0.11871318008571223,"12":-0.045696511849757836,"13":-0.04132675035504566,"14":-0.07312342316681408,"15":-0.029116038697595496,"16":0.05762773293873725,"17":-0.10028185201029714,"18":-0.20701197672977295,"19":0.19661884118458478,"20":0.047648650827583634,"21":-0.06188524032005874,"22":0.05668920486614414,"23":-0.03454948364655338,"24":-0.031085917110707007,"25":-0.01371813897177429,"26":-0.04974847278188823,"27":-0.18139157412433896,"28":-0.11725551756179964,"29":-0.19977528084189308,"30":-0.17655398333255462,"31":-0.1311914723594123,"32":0.03675214750443021,"33":-0.1171813379908525,"34":-0.08111340812692025,"35":-0.01153847782792454,"36":0.13259794341070097,"37":-0.01061845594497057,"38":-0.018301592652533144,"39":0.19998447671328623,"40":0.21376299220476147,"41":-0.04627381983877102,"42":0.13067421761077802}},{"sx":1,"sy":1,"depth":43,"w":{"0":-0.0881368525877341,"1":-0.24027791974989363,"2":-0.10729532843114091,"3":-0.021055587517917224,"4":-0.10734792473724604,"5":-0.03806691661681361,"6":-0.2026545839806715,"7":-0.026352551027958145,"8":-0.19531664640074461,"9":-0.06419557867311698,"10":-0.25033597708419797,"11":-0.08178150457200407,"12":-0.2658613778603426,"13":0.09082613399680249,"14":-0.13044687530102525,"15":-0.03400136360921956,"16":0.12912497325212643,"17":0.11884011898905804,"18":0.5867388752029798,"19":0.0005010016849583463,"20":-0.11456525708970391,"21":-0.14758587527880895,"22":0.00017366935173797224,"23":-0.20187291703081772,"24":0.08111721990302083,"25":-0.13984773236339934,"26":-0.04612489425480575,"27":-0.04396610499647876,"28":0.0744496972467938,"29":0.22635600858175656,"30":0.0713154469022478,"31":0.17388485482377194,"32":0.08149495627675941,"33":0.12856029015293352,"34":0.0558482226137688,"35":0.11624222558701268,"36":0.1616738250204096,"37":0.008879836774604907,"38":0.15891364795445898,"39":-0.08614826555780745,"40":0.22548315200729985,"41":0.22248355417401158,"42":-0.09709058455989847}},{"sx":1,"sy":1,"depth":43,"w":{"0":-0.021279721156091842,"1":-0.07783560389639226,"2":0.15315556782579126,"3":-0.13684824573973112,"4":0.08984475805502362,"5":-0.010872372167147547,"6":0.059829329821266715,"7":0.15012405078877358,"8":-0.03967965294148062,"9":-0.019550899047547112,"10":-0.2623127175709068,"11":0.07555643782372685,"12":-0.11330818843729631,"13":-0.012353756708438858,"14":-0.05089725777847787,"15":-0.1010383704184826,"16":-0.022022260868728605,"17":-0.008782831196454056,"18":0.15207966763449485,"19":-0.017539337722289917,"20":-0.017392560051872306,"21":-0.029199939480338506,"22":-0.011088974319140271,"23":-0.003862393913042637,"24":-0.049074622178414976,"25":-0.01682470558617755,"26":-0.1020087561928426,"27":-0.13237471006983542,"28":-0.051579332939341194,"29":-0.22705295448214466,"30":-0.05310025020210349,"31":0.02428386388378155,"32":-0.0009269563177747177,"33":0.07650853416651399,"34":-0.05595105297702616,"35":0.15140800745989838,"36":-0.05113919894462304,"37":0.15107250932908584,"38":-0.06696874756407076,"39":0.13565755450528752,"40":0.14101368651180188,"41":0.07016343885619428,"42":0.008156005858115168}},{"sx":1,"sy":1,"depth":43,"w":{"0":0.035310779483897395,"1":-0.06037369777855161,"2":0.028770230417654634,"3":0.16113400591040378,"4":0.007426364182876167,"5":-0.1132618184869631,"6":-0.02612682894996826,"7":0.06824985968629109,"8":0.11362385012909303,"9":-0.08320615163333692,"10":-0.14027677409522496,"11":-0.10923956184286263,"12":-0.06558364694174434,"13":-0.14651099800246642,"14":0.08608385300374957,"15":-0.05319547884046735,"16":-0.05073843461612371,"17":-0.03619164202154146,"18":0.046856308801459044,"19":-0.024670718791930342,"20":0.0037218887372919953,"21":0.0039049156824961973,"22":-0.022662150938659663,"23":-0.11874303459676841,"24":0.04275268964033421,"25":-0.0011207118893213355,"26":0.1561100882915682,"27":0.06471253493521349,"28":-0.04960797184384785,"29":0.06148586770434255,"30":0.07100876762236942,"31":-0.030801970013265942,"32":0.04557205511282656,"33":-0.026650826281403476,"34":0.006530678958931839,"35":-0.215920414721415,"36":-0.057647564498707685,"37":-0.0007212712310616507,"38":-0.006515541046752418,"39":-0.0048396330967992824,"40":-0.11928384562180198,"41":0.08281337522274823,"42":-0.012026841640133654}}],"biases":{"sx":1,"sy":1,"depth":50,"w":{"0":0.0970521371974578,"1":0.07226020727768476,"2":0.020069001280356116,"3":0.10905724287636295,"4":0.10516509829228105,"5":0.09789796423617075,"6":0.1370038935260837,"7":0.08213982831722118,"8":0.07949129113244362,"9":0.10814906782134277,"10":0.08695858926554725,"11":0.1033063975014106,"12":0.09442072262780059,"13":0.10469654232936114,"14":0.0921655932647713,"15":0.10521479322134124,"16":0.1149089869784174,"17":0.11278881043418898,"18":0.0857307701713521,"19":0.08582846114471446,"20":0.10826143626844771,"21":0.139077977822744,"22":0.08714543515755019,"23":0.1011092188920369,"24":0.07656976209285007,"25":0.09103920822487893,"26":0.10072521649737143,"27":0.09497746366110704,"28":0.087177109463489,"29":0.02323056669302337,"30":0.06448379750209517,"31":0.10726752484679229,"32":0.19878294357149195,"33":0.1121967542476657,"34":0.1567029841128801,"35":0.07504033764303883,"36":0.11165577459591004,"37":0.09340905792256787,"38":0.08884798605338741,"39":0.09293213187665562,"40":0.11339898586284973,"41":0.08132114069407106,"42":0.20093330180495098,"43":0.08868957611483384,"44":0.13094247449957497,"45":0.09978755864561695,"46":0.11357858619569602,"47":0.1261370252513026,"48":0.11757881102668992,"49":0.0950099359256779}}},{"out_depth":50,"out_sx":1,"out_sy":1,"layer_type":"relu"},{"out_depth":50,"out_sx":1,"out_sy":1,"layer_type":"fc","num_inputs":50,"l1_decay_mul":0,"l2_decay_mul":1,"filters":[{"sx":1,"sy":1,"depth":50,"w":{"0":-0.11680463806261478,"1":-0.06876847592812861,"2":-0.06889037969282176,"3":-0.10793997618929807,"4":0.10970972201962942,"5":-0.12184127252580415,"6":-0.05728898890655079,"7":-0.07704437625476258,"8":0.1489073047822993,"9":-0.019896407327196615,"10":0.016085277481121162,"11":-0.11193648538346755,"12":-0.04575666424453657,"13":-0.08040180818599388,"14":-0.03978336213516101,"15":0.03079682502838723,"16":-0.020894426872095764,"17":0.013869012914883298,"18":-0.052256651686041385,"19":-0.04451169489435594,"20":0.012710842470612074,"21":-0.02592729431085593,"22":0.00014776943909850816,"23":0.012998678134651996,"24":0.005097407911320924,"25":0.30158449937713244,"26":0.05868370828477987,"27":-0.08042208857913444,"28":0.14519117847215307,"29":-0.18267531661056563,"30":0.07558813647835902,"31":-0.21628064671992356,"32":0.07457807403778756,"33":-0.1917787841505085,"34":-0.02156562910297759,"35":0.13481213503515993,"36":0.031753486209945406,"37":0.03622198428245888,"38":0.05084127229424306,"39":-0.0909042442259349,"40":-0.010858525353046823,"41":0.06774303099506823,"42":-0.22831925540140116,"43":0.22676065783679994,"44":-0.34504937280511544,"45":0.03341636871656891,"46":-0.12019343876741312,"47":0.16008693301222346,"48":-0.005100450703181799,"49":-0.1538772375824894}},{"sx":1,"sy":1,"depth":50,"w":{"0":-0.020813979174391494,"1":-0.2810908078829885,"2":-0.2002428443769148,"3":0.09488274591331951,"4":0.02930966238599532,"5":-0.04258784525902417,"6":0.205042132961058,"7":-0.20526134638817167,"8":0.02598253485055727,"9":-0.09660540547727822,"10":-0.06306814134352226,"11":-0.07929662278540875,"12":-0.005860110199965703,"13":-0.05834341859739875,"14":0.1293353106671475,"15":-0.11240843012292161,"16":0.1431415296881954,"17":0.03685755089866673,"18":0.055217454500608956,"19":0.02701666481098296,"20":0.06280866302696798,"21":0.2281725138284689,"22":-0.11108041096811959,"23":-0.00964388565912107,"24":-0.10339568705502948,"25":0.08008029998778464,"26":0.15819537996233285,"27":0.18362834888899193,"28":-0.005256929847570953,"29":-0.30524433829102066,"30":-0.0715877099491603,"31":-0.2374637300087912,"32":-0.027367857602133356,"33":0.00780634559517933,"34":0.19955697319575952,"35":0.04042385291393112,"36":0.10831484863463299,"37":-0.0386680764414778,"38":-0.12689028650343498,"39":0.012893220098672177,"40":-0.18086575229896412,"41":0.0100128383210239,"42":0.2187250650301548,"43":-0.05653910463781485,"44":0.035736615683555864,"45":0.1265757782481859,"46":0.11750942059934595,"47":0.17703377891144462,"48":0.036014544519779805,"49":0.07240711130404522}},{"sx":1,"sy":1,"depth":50,"w":{"0":0.04416237211444233,"1":-0.06479178906555234,"2":0.07119966293488939,"3":0.054037692288059914,"4":-0.044433005987848204,"5":-0.1387762096568965,"6":0.04106614251473236,"7":0.11346902149479851,"8":0.026224622437446825,"9":0.006865881244908495,"10":-0.00668749308837024,"11":0.010328578420218419,"12":0.002272449276172698,"13":0.015878203996071236,"14":-0.07892378522989783,"15":-0.051232053390903656,"16":-0.07874331647441472,"17":0.0014081679794019483,"18":-0.14550240105038753,"19":0.0327612546526337,"20":-0.05295120629011995,"21":-0.0713806547395978,"22":0.012463071751398104,"23":-0.10340223533960598,"24":-0.042914337656501544,"25":-0.06655405401804693,"26":-0.021018429255693256,"27":-0.002128876601092292,"28":0.009519990089312654,"29":0.0317188472209405,"30":0.09718792216352393,"31":-0.1034001525555055,"32":-0.13105996249994636,"33":-0.1393003864240307,"34":-0.00788621175354984,"35":0.060130442275671984,"36":0.03436447512096514,"37":-0.027084763740658165,"38":-0.1607664326019268,"39":0.050734966390605665,"40":-0.07515943409123566,"41":0.012483280879186766,"42":-0.020047587956946236,"43":-0.04080078540981133,"44":-0.03271636141490655,"45":0.022814063887268896,"46":0.0008732010536950367,"47":0.08484707127551007,"48":0.14457011807602407,"49":0.01792147521193337}},{"sx":1,"sy":1,"depth":50,"w":{"0":-0.08465456405194313,"1":0.0018716992174530572,"2":-0.0009613566264324851,"3":-0.0649385931437828,"4":0.06826354156294843,"5":-0.08541621020843743,"6":-0.16273600208379174,"7":0.035618380531916106,"8":0.06473130794904285,"9":0.0997056807088435,"10":-0.0620549861729047,"11":-0.07159777853363468,"12":0.1191655619615556,"13":-0.019271876957833046,"14":-0.184819928322686,"15":-0.05993745738165542,"16":-0.07264679293469146,"17":0.03724241325648635,"18":0.11525816245349299,"19":-0.06728845624596373,"20":-0.09709862761871453,"21":-0.1569899654482394,"22":0.015798722019726055,"23":-0.04758450982987945,"24":0.022653807254090393,"25":0.028976652679043535,"26":-0.011090011600822972,"27":-0.11299957444122542,"28":-0.09191285956533254,"29":0.25198201129236864,"30":0.17999476789218657,"31":0.20013354518304688,"32":0.047293005453697086,"33":-0.005722636566818438,"34":-0.42608871816762794,"35":0.07474928582498322,"36":-0.04354829073747806,"37":0.3635544656325083,"38":-0.006616363754723551,"39":-0.1342483961798315,"40":0.1639513997525196,"41":0.12585693684270188,"42":-0.18368357092393084,"43":-0.05251164989592186,"44":0.1177203018730719,"45":-0.017092960974728594,"46":0.0007478223436964641,"47":-0.1840118088662378,"48":-0.1289231143642826,"49":0.050476355088144784}},{"sx":1,"sy":1,"depth":50,"w":{"0":-0.07911526390272852,"1":0.08681786068402181,"2":0.10888089585637635,"3":0.10171798647233916,"4":-0.0032978389491740835,"5":0.054861483064905896,"6":0.026477406866892754,"7":-0.10801616994454229,"8":0.1952943732881384,"9":0.06274794162748616,"10":0.10372557362352312,"11":0.02464087544040628,"12":0.11065644007905576,"13":-0.0032324687643572065,"14":0.04626045568446413,"15":0.0918008856192187,"16":0.09490077177696797,"17":0.04561173577562853,"18":-0.03295847943228289,"19":0.023144927996824678,"20":-0.028909918983604958,"21":0.03796732426886744,"22":0.05713330647242861,"23":-0.08759219959733507,"24":0.03025887532888891,"25":0.044280090387010466,"26":0.03275888979583083,"27":0.1141026495469048,"28":-0.0739726216485853,"29":0.01890836747953486,"30":0.10101579129027907,"31":-0.01345269109919197,"32":0.4452167617182419,"33":-0.13950414632933847,"34":-0.009785543317823256,"35":-0.17857708730103544,"36":0.07402561828954109,"37":0.10648323735436745,"38":0.04266226491071092,"39":-0.040873200863846104,"40":-0.09678289029863438,"41":-0.01429149679439509,"42":-0.23094825859379242,"43":0.17255045425216858,"44":-0.012002240868103234,"45":0.01390222031001969,"46":-0.05176477687551031,"47":0.04295456813443546,"48":0.042918619136791625,"49":-0.01816792497841427}},{"sx":1,"sy":1,"depth":50,"w":{"0":0.0675501977270177,"1":-0.12528450742477065,"2":0.1481772654048674,"3":0.04191661783531418,"4":-0.09479224122587887,"5":-0.009218463492205595,"6":-0.014046961228517925,"7":0.0028274315515799176,"8":-0.0011140404805652585,"9":-0.11031274838619508,"10":0.06810561305847239,"11":-0.005958370885289307,"12":-0.003912487513103024,"13":0.04323510387184336,"14":0.026960176407449438,"15":-0.015702247418938043,"16":-0.07251802583479088,"17":-0.06569829545525994,"18":-0.08812154425735247,"19":-0.05412730456436843,"20":-0.023509665638162418,"21":-0.10412685814620404,"22":0.1621330008835559,"23":0.15733441972530443,"24":0.06008304852335451,"25":-0.06729579030380921,"26":0.12474522964893635,"27":0.10824519864356065,"28":-0.012857090055610212,"29":0.12304075315813905,"30":0.024448828465184858,"31":-0.02343643464803618,"32":-0.14862058452853266,"33":-0.01864607672570484,"34":-0.1204103938711524,"35":-0.10334494967225161,"36":-0.08828035052785707,"37":-0.016846932933664446,"38":-0.08960224265665527,"39":-0.06045639229347168,"40":0.00938639477708563,"41":0.07555458889585441,"42":-0.04414370481817156,"43":-0.036820391975082495,"44":0.00392086641173552,"45":-0.06301213437559856,"46":0.020734861614524657,"47":0.014112633891269485,"48":0.13588925780489214,"49":0.029225186387566604}},{"sx":1,"sy":1,"depth":50,"w":{"0":0.032798547457929615,"1":-0.18036325492406302,"2":-0.32630739868007363,"3":0.0352483159331285,"4":-0.008864830795188103,"5":0.07338801018690749,"6":0.17288108013177667,"7":-0.22301642943843206,"8":-0.1756863465831614,"9":-0.1599208915102294,"10":-0.08295001398843534,"11":-0.0680572838766233,"12":-0.026814296238495634,"13":0.08904904079685999,"14":0.03807805203467593,"15":0.18324528607876564,"16":0.1336109660441825,"17":0.13839584764085364,"18":0.016112554458621458,"19":0.031150583507811577,"20":0.05719447692854901,"21":0.327252852313155,"22":-0.16692959055399387,"23":0.0729013974010207,"24":-0.10018903878456889,"25":0.08308001102927204,"26":-0.060716489397519856,"27":-0.025325288207046093,"28":-0.04978404557549774,"29":-0.3673355381714017,"30":-0.08692218986258303,"31":-0.20318812822739798,"32":0.024735519931699812,"33":0.10924775650311146,"34":0.22245879933839316,"35":0.11312851514275293,"36":-0.00980520053354276,"37":-0.026004812523773246,"38":-0.03933939136166184,"39":0.019584685165577702,"40":-0.1115713857775133,"41":-0.008538543686818861,"42":0.3261827222142109,"43":-0.06025644812975098,"44":0.2538453515554667,"45":0.034895224826693154,"46":0.20261508135947365,"47":0.14181918221170997,"48":0.02660106763835375,"49":-0.009570056807823302}},{"sx":1,"sy":1,"depth":50,"w":{"0":0.03697223572378115,"1":0.19483004901207496,"2":-0.04150915416039713,"3":-0.19606969502152358,"4":-0.05931997052434284,"5":0.05603867967488076,"6":-0.18942052350050603,"7":0.1144579791802676,"8":-0.47999595945233914,"9":0.2262169049112491,"10":0.04642331690528249,"11":0.12939754201191314,"12":-0.18440964369990376,"13":-0.07515125929614547,"14":0.06390316155500299,"15":0.00511558487435761,"16":-0.15929339888217137,"17":0.013681432328079892,"18":-0.28981809413287224,"19":-0.04744589456364441,"20":0.3707338176005004,"21":0.6205250885715433,"22":0.26688406757577426,"23":0.009967448526997323,"24":0.1791605996122417,"25":-0.05851074924218405,"26":-0.15319378455862548,"27":-0.06666226131095905,"28":0.7500742107456893,"29":0.801280562213435,"30":0.20590882637697686,"31":0.6033395841960776,"32":0.44267133210648746,"33":-0.05510152127178491,"34":0.7040837892606274,"35":0.2678665594372507,"36":0.22811068285454314,"37":-0.04829418579068819,"38":0.2185450921566569,"39":0.1709293376332525,"40":0.31153102563812207,"41":-0.12032764578317474,"42":0.0590386202930609,"43":-0.0005057955447177883,"44":-0.2263600460339749,"45":0.034131896946415725,"46":-0.10305643591534287,"47":0.32177353444061074,"48":0.1686339830393051,"49":-0.035345169986915476}},{"sx":1,"sy":1,"depth":50,"w":{"0":-0.06886557156223788,"1":0.004009468045028149,"2":0.029318784936053183,"3":0.04570506869283549,"4":0.10720828398770176,"5":0.0452764621722664,"6":0.11777446256345707,"7":0.040702813450803364,"8":0.044736641387897305,"9":0.13815183568593117,"10":0.04946396344542405,"11":-0.008078940330965737,"12":0.02479295187446045,"13":-0.12018845764978227,"14":-0.10122641743967421,"15":0.07343505292339382,"16":-0.18478744329612717,"17":0.017414016018221876,"18":0.15627653445659656,"19":-0.07527492844384835,"20":-0.05677553085454668,"21":-0.23698665565376978,"22":0.007278160752481099,"23":-0.02995060840043217,"24":0.04619053665838463,"25":-0.09831164806006742,"26":0.030374759007914347,"27":0.0801263688493351,"28":-0.2698753204622199,"29":0.26061622036223564,"30":-0.009494675424584582,"31":0.1671437736796931,"32":0.10276804348649927,"33":-0.005678190884353721,"34":-0.1484737321196221,"35":-0.1266587265017979,"36":0.12035656972860656,"37":0.12458311106147352,"38":0.002147039812907253,"39":-0.02995960847735392,"40":0.17132016979382148,"41":-0.11714791402605947,"42":0.09839736210305113,"43":-0.059430697273391266,"44":0.024826451024031967,"45":0.00564117986866205,"46":0.08200921549694735,"47":-0.04241588167424266,"48":0.022592526462294777,"49":0.09849856076435291}},{"sx":1,"sy":1,"depth":50,"w":{"0":0.08821489791593862,"1":0.06801741268715646,"2":0.18075260087322798,"3":-0.11632985865947523,"4":-0.007657450931826199,"5":0.0483712862648566,"6":-0.08495927315980664,"7":-0.04143365220766305,"8":0.11639238195919539,"9":0.006985799767864848,"10":0.04276264636637098,"11":0.0191659566110331,"12":0.13385356471998677,"13":-0.1516454453529808,"14":-0.06496895551397244,"15":0.0867877837469348,"16":-0.056916126214278995,"17":-0.04616131943904751,"18":-0.08918137980120072,"19":0.07807867290375123,"20":-0.26692843845386754,"21":-0.25861248052884367,"22":0.11309304027809022,"23":0.014654572471663862,"24":-0.07787710100883546,"25":0.23591968573181546,"26":0.01918397812617119,"27":-0.08697749064695418,"28":-0.18975506573228973,"29":0.2546402510330062,"30":0.22429296362780346,"31":-0.04608302135989174,"32":0.08752932205866254,"33":-0.04916393047643941,"34":-0.43376709799817115,"35":-0.13411635708844524,"36":-0.13401942517344823,"37":0.690277715646446,"38":0.10347095247557025,"39":-0.10245023157515228,"40":-0.009335878537192794,"41":0.046262145051508774,"42":-0.212203601527902,"43":0.07402473348481842,"44":-0.11274891849635627,"45":-0.13933732100067645,"46":-0.1579544605343393,"47":-0.20372415887854384,"48":-0.18094492488455816,"49":0.03618305715466631}},{"sx":1,"sy":1,"depth":50,"w":{"0":0.14760574647623442,"1":-0.041846866633807774,"2":0.04785225165410811,"3":0.0021111904746562446,"4":-0.036586930902397764,"5":-0.02726450922891645,"6":0.11060958862801248,"7":-0.04951452978519771,"8":-0.08514380163872214,"9":0.10608306069527412,"10":0.1022675386548888,"11":0.05974565960061951,"12":0.031107024137329936,"13":-0.1527670334869361,"14":-0.000578934963917635,"15":-0.09135328272515962,"16":-0.02775996475238183,"17":0.20191576339521175,"18":-0.11973372158652086,"19":0.03858029087194169,"20":0.05658848836957293,"21":-0.07241925604697114,"22":0.03185163755547428,"23":0.12952661221288003,"24":0.005897270880807385,"25":0.14580431183279474,"26":-0.03151232157508361,"27":-0.07764520844195943,"28":-0.002698205654972421,"29":0.0647843919769947,"30":-0.008118195342784192,"31":0.01954500047186271,"32":-0.13741852843315006,"33":0.011124800765752622,"34":0.07323614039711089,"35":0.03026849213723063,"36":0.028778273536142877,"37":-0.15426717943533505,"38":-0.09228181977924926,"39":0.1436676353178677,"40":0.06927697235904222,"41":0.10659691010211418,"42":0.15260881319972522,"43":0.06729223693700064,"44":0.040129414134745925,"45":0.038787849011312506,"46":0.09014621689510685,"47":0.04073328097727401,"48":0.062132222198499044,"49":0.011266540244103543}},{"sx":1,"sy":1,"depth":50,"w":{"0":0.014915244304479535,"1":-0.020393771970868047,"2":-0.0017959295428870707,"3":0.03025230616520344,"4":0.03614824953756463,"5":0.013421712616465357,"6":-0.07048924297075228,"7":0.05275469739474469,"8":-0.1465975519141536,"9":-0.05537759647736704,"10":-0.049283632380546984,"11":-0.05467067782308966,"12":-0.06735838241069252,"13":-0.023499908058987936,"14":0.19656905688440393,"15":-0.0384411197906028,"16":-0.0334100258155271,"17":-0.09732996196305323,"18":-0.04342517273706873,"19":0.014278763687086827,"20":0.06264368667864462,"21":-0.1125694789391223,"22":-0.051091322487167336,"23":-0.11400084150530802,"24":-0.030322087559784855,"25":0.013169958139426946,"26":-0.03311812414015055,"27":-0.018797521533232237,"28":-0.05116070003262084,"29":0.029461487555607093,"30":0.13392891571433854,"31":-0.08074690285447275,"32":-0.1295473740059121,"33":0.062703388137254,"34":-0.17977363428032278,"35":0.06715335924483706,"36":-0.009285325254784746,"37":-0.11181873061598446,"38":0.09919004980585099,"39":0.0560882172455139,"40":-0.006836125298584123,"41":-0.0841326197550554,"42":0.014831286469824827,"43":0.005051542375699768,"44":0.033879891315958366,"45":-0.018605280549632685,"46":-0.0016269757697854287,"47":0.09386711742948975,"48":0.10505603378843838,"49":0.055979575886760995}},{"sx":1,"sy":1,"depth":50,"w":{"0":-0.09793726607457766,"1":-0.13440587949237418,"2":0.05281189251923052,"3":-0.08512312546773632,"4":0.044820380024669634,"5":0.09234316983825841,"6":0.01398494983227795,"7":0.001413779428732628,"8":-0.03707003037087064,"9":0.015123539800360056,"10":-0.15099031113754505,"11":0.0021510076286162115,"12":0.0008948407017914144,"13":-0.10610535595159429,"14":0.1774285863578187,"15":0.13106164509917764,"16":-0.02072902232976595,"17":0.052382485965688785,"18":-0.1232768624157417,"19":-0.1075567026650202,"20":-0.0744167320251982,"21":0.13580895563336967,"22":-0.005720464191634608,"23":0.0728621014910662,"24":0.18823313099691258,"25":0.07717424263608146,"26":-0.0289730140513371,"27":-0.1007050133952055,"28":0.017452557687206702,"29":-0.1541952816392602,"30":0.046945901500959675,"31":-0.12657160145769483,"32":0.0018295521077245469,"33":-0.0056341017386220835,"34":0.2441364653365052,"35":-0.035830712859049645,"36":0.08591540616781694,"37":-0.04016586181237894,"38":0.1082932982098564,"39":0.05713249289976915,"40":-0.019160767512637733,"41":0.03413614450353287,"42":-0.07601128133505629,"43":0.15869546878986376,"44":-0.016763986947182844,"45":-0.038847591866742706,"46":-0.029687661243057484,"47":0.2316440176908103,"48":-0.07263088099605385,"49":0.07994794559509778}},{"sx":1,"sy":1,"depth":50,"w":{"0":0.00903311209610597,"1":-0.05376536088909487,"2":-0.008188963112524126,"3":-0.12159453269625871,"4":0.022653698188548184,"5":0.04977716542875154,"6":-0.1064312802920061,"7":0.05043285304885275,"8":0.03083631792300609,"9":0.020962297435130835,"10":0.04554948475437471,"11":0.016839231463262362,"12":0.0022825033957751357,"13":-0.028582072669974937,"14":-0.07276665035074367,"15":-0.01623562614899129,"16":-0.015746434589382328,"17":0.06265196826918476,"18":-0.09151417989704685,"19":-0.029892052461643642,"20":0.08099624202301875,"21":0.12470287403225291,"22":-0.05330659402905128,"23":-0.06831176748126161,"24":0.005149389148326594,"25":-0.07010999215800282,"26":-0.04250988818150129,"27":0.024529474362841464,"28":0.023058468715030807,"29":0.20552156716709324,"30":0.08353970714968093,"31":-0.08163472559232221,"32":0.3818060078786799,"33":-0.26969817852672806,"34":0.05241807661821126,"35":0.02339576081323288,"36":-0.008144906311019903,"37":-0.014972324577516473,"38":-0.006294163765476259,"39":-0.03820536729879908,"40":0.11900506723611948,"41":0.08151178046893917,"42":0.12381509682176038,"43":0.058650198250028436,"44":-0.07061279222191584,"45":0.04437675023677572,"46":-0.06716067309466756,"47":0.08400318807901785,"48":-0.10040976171635009,"49":0.025128446114046743}},{"sx":1,"sy":1,"depth":50,"w":{"0":-0.03795976909476498,"1":0.0615938186173467,"2":-0.029286291887406012,"3":-0.023441166993235583,"4":0.011500111444460852,"5":0.11704599592259497,"6":0.026108363318020297,"7":0.09834811136757861,"8":0.07374060079454572,"9":0.10075777474285352,"10":0.014872566748218121,"11":0.1318811651399163,"12":-0.1242982412712406,"13":0.039034009487479315,"14":0.04319465346785762,"15":-0.1560446961207752,"16":-0.05194428456566843,"17":-0.07623801035061428,"18":-0.0014159531807824792,"19":-0.26394905515760775,"20":-0.03374554595172594,"21":-0.08423936815491744,"22":0.03542178022617303,"23":-0.014630013513691142,"24":0.1730536456961086,"25":-0.07972232130960898,"26":-0.07431443834665848,"27":0.20614722823441284,"28":-0.0010818860924122313,"29":-0.11314398302331352,"30":-0.08547916620582459,"31":0.22688310370444184,"32":0.26478048106232366,"33":-0.0462787763541474,"34":0.26508309581502865,"35":-0.03534557839980535,"36":0.1301041108351371,"37":-0.3795728035606292,"38":0.015201290319105248,"39":0.08868935665896786,"40":0.11768158179949777,"41":-0.06542082461762738,"42":0.40777284292768834,"43":-0.0811920356812836,"44":0.10074914137282463,"45":0.07447135030458514,"46":0.15968119558645033,"47":-0.03312930619224603,"48":0.10363200799695674,"49":0.021702157010618003}},{"sx":1,"sy":1,"depth":50,"w":{"0":0.07147518580431265,"1":0.008266496662951336,"2":-0.060360281168360265,"3":0.013385287905087168,"4":0.10933197765492304,"5":0.1164227602070892,"6":-0.01723207130680194,"7":-0.06936364143196817,"8":0.03241503529880691,"9":0.07358743202528253,"10":0.14215582980540412,"11":0.020523585539937342,"12":-0.08663141458944745,"13":-0.051315516026446455,"14":-0.0014355609552573199,"15":0.11955117577325795,"16":0.009405197217036582,"17":0.07386151341448266,"18":-0.0884207022445642,"19":-0.055808122690560874,"20":-0.011769539664336852,"21":-0.005776571115263147,"22":0.014078577964805227,"23":-0.06612848497480467,"24":-0.06802936629858342,"25":0.1708162003048108,"26":0.06408305125424679,"27":0.09375340485011165,"28":0.11025124707862682,"29":-0.11724434932540882,"30":-0.2251574311794419,"31":0.016512254786334436,"32":-0.1958898597862787,"33":-0.024560190601587248,"34":-0.05246844992714889,"35":-0.00005400067142787905,"36":-0.008595770617095355,"37":0.027373870068913578,"38":-0.07638534841645314,"39":0.06280013690884612,"40":-0.1774467318832527,"41":-0.008205669956624553,"42":-0.05047843270115924,"43":0.11038726449349608,"44":-0.15521649621756325,"45":-0.007609493040961938,"46":-0.13105058256206387,"47":0.07398951450672438,"48":-0.0012108778554448308,"49":0.08825707985889823}},{"sx":1,"sy":1,"depth":50,"w":{"0":-0.07611537099079398,"1":0.12262446502559672,"2":0.2927850072644805,"3":-0.059544269118388504,"4":-0.009750030916648385,"5":-0.05484427133285025,"6":0.030366701359100596,"7":0.2351521679101933,"8":0.3284767645311969,"9":0.019567162742064482,"10":0.06588159371434975,"11":-0.017607348249435353,"12":0.12926070845480067,"13":-0.10019577485727736,"14":0.034206874694112384,"15":-0.104695688911263,"16":-0.07577529800927155,"17":-0.17407565618693152,"18":0.49678612203113653,"19":0.1780829589623421,"20":-0.059876855160430335,"21":-0.32256529557065355,"22":0.1500373017807761,"23":-0.028684908546869642,"24":0.0472380311763478,"25":0.045378793119862856,"26":0.019427096978640174,"27":0.021901971943592936,"28":-0.2812241049595819,"29":0.14393409872043342,"30":0.0861816353001508,"31":-0.0999071851221725,"32":0.004229277415392586,"33":0.16263496949532685,"34":-0.29409735262449505,"35":-0.15644301486395315,"36":0.030675078871739005,"37":0.12002472870899962,"38":0.08755220319397684,"39":-0.1128787807945569,"40":-0.005235249963274484,"41":0.18113668468633634,"42":-0.3176615053155995,"43":0.20275211697765025,"44":-0.025721234696470023,"45":-0.20042106124192344,"46":-0.08941675498665515,"47":-0.1208077418516101,"48":-0.0832029600584482,"49":-0.014130946023477269}},{"sx":1,"sy":1,"depth":50,"w":{"0":-0.04567122529057039,"1":-0.30519446140362366,"2":-0.2800881794887273,"3":0.03742515549673657,"4":0.026517651166705153,"5":0.016309287764385717,"6":0.1202341381145428,"7":-0.28557182713382323,"8":-0.08799669950207735,"9":-0.1176787484359523,"10":0.1706840285833512,"11":-0.002579234592792678,"12":-0.015300660099772538,"13":0.11397072541616711,"14":0.11077769282696362,"15":0.0594498412167778,"16":-0.01907232503267322,"17":0.022356532639027413,"18":-0.09806095747556115,"19":-0.06619078191777489,"20":0.16089431668323376,"21":0.2543809240449204,"22":-0.18697297089666265,"23":-0.04881864352867045,"24":-0.029799216381995404,"25":0.22257690309860292,"26":0.05901576135681039,"27":-0.009747576194661704,"28":0.21593453845470084,"29":-0.515472115685961,"30":-0.04939499716712321,"31":-0.2792340667100252,"32":-0.10047231250551635,"33":0.1211934888871641,"34":0.2855762974003236,"35":0.18005789262610683,"36":-0.00879550507944975,"37":-0.019833206653683568,"38":0.02971845116448738,"39":0.010364394817071588,"40":-0.07740321440080641,"41":-0.027172683318460157,"42":0.2664100761399785,"43":-0.09020478341927998,"44":0.22036663328417372,"45":-0.08741041051021055,"46":0.1117137010649604,"47":0.16977300868671294,"48":0.00986931199181335,"49":0.021396741628416968}},{"sx":1,"sy":1,"depth":50,"w":{"0":0.23895765326316182,"1":0.10902018614703975,"2":0.057265879778803,"3":0.025635863857435454,"4":0.03025962248404524,"5":-0.036122883022776,"6":-0.07510285976584173,"7":0.15538550811326796,"8":0.18995936339870245,"9":-0.12713502524840545,"10":0.13587281008742014,"11":0.10583957320195679,"12":0.004732111283517505,"13":-0.0349442721891337,"14":0.10646553572900179,"15":0.07323469605440593,"16":0.11801899029448616,"17":-0.07907495876369093,"18":0.32725993203030257,"19":0.0791048273312353,"20":-0.23478169640186933,"21":-0.2238610882534056,"22":-0.024875421625207467,"23":0.04628355446290637,"24":-0.06128918121969042,"25":0.005510728097003703,"26":0.006298843428889123,"27":0.03758376115174809,"28":-0.4070528080416945,"29":-0.07608432020107937,"30":0.06623183231403944,"31":0.021304521953062868,"32":0.022389101866567,"33":-0.011767652770817783,"34":-0.3938359936026912,"35":-0.020757967964323033,"36":0.050661319215892536,"37":0.20865285156959165,"38":-0.07774483208058566,"39":-0.1619176422565936,"40":0.04047434689709129,"41":-0.08797612360314339,"42":-0.11524050479664187,"43":0.07898883332739615,"44":0.10855708075776878,"45":0.009790214915693742,"46":-0.07752732714735798,"47":-0.16403282353460216,"48":0.007187403853722529,"49":0.05895667512696985}},{"sx":1,"sy":1,"depth":50,"w":{"0":-0.15453831578252514,"1":0.06748004796785491,"2":0.045538324545499775,"3":0.031301689967973625,"4":0.034949327119926134,"5":-0.019407772764933374,"6":-0.09206282558699046,"7":-0.021500012276038084,"8":0.11119698463847222,"9":-0.047808707494145744,"10":0.10849255068665167,"11":0.08971720791973638,"12":0.0555222207399163,"13":0.06720367731728018,"14":0.046475307316674486,"15":-0.0014308829281152952,"16":-0.1303512946548676,"17":-0.03919628255901271,"18":-0.17342881870485352,"19":0.00652039660605504,"20":-0.02610195586334583,"21":0.11013307577949188,"22":-0.07016027899661854,"23":0.029202888089811002,"24":0.0585882069798641,"25":-0.1899189536484673,"26":-0.1063573237936043,"27":-0.08569164617701348,"28":0.21961991181717377,"29":0.266146109726922,"30":0.17298505676335058,"31":0.0910792869102496,"32":0.22947517769027867,"33":-0.22303022022023736,"34":-0.07000500716985451,"35":-0.12592393064320578,"36":-0.014918099661811032,"37":0.06128478688344123,"38":0.0011642632164488072,"39":-0.10966309289470745,"40":-0.08213830959092619,"41":-0.003100175874870126,"42":-0.031935124326499614,"43":0.01699179396113599,"44":0.05670901423875303,"45":0.11117040814059408,"46":0.08958897952509709,"47":-0.02649908971821453,"48":0.04722933891138194,"49":0.0003921621085860176}},{"sx":1,"sy":1,"depth":50,"w":{"0":-0.05454892996051134,"1":-0.02644606091799057,"2":-0.024950351322640424,"3":0.017579561799819725,"4":0.14190097876803662,"5":0.06844957232547377,"6":0.028989891694957217,"7":0.013559671931841377,"8":-0.02077011281277798,"9":-0.008234730842817246,"10":-0.04831335326371269,"11":-0.022591014163074567,"12":-0.04755612772339093,"13":-0.05482971243407265,"14":-0.12783814867984622,"15":-0.16364527815489252,"16":0.0298450974606459,"17":0.00862249040662874,"18":-0.12113218442652991,"19":-0.02668545888138089,"20":0.0052260720561002,"21":0.051550315865512515,"22":-0.006333028011417875,"23":-0.034678057653928555,"24":-0.01949255787627759,"25":-0.11811474441516218,"26":0.06552345845441052,"27":0.037719657258077854,"28":-0.05215439034271496,"29":-0.13369099452627986,"30":0.12328739721683178,"31":-0.04327998092885151,"32":-0.012322801638581507,"33":-0.03360769778092073,"34":0.08378729295885816,"35":-0.03567924532645886,"36":-0.045550310400929356,"37":0.10753800499943901,"38":-0.08673454274507109,"39":-0.008825493706704277,"40":-0.06187742342341009,"41":-0.0033072312135686392,"42":0.11009522279836183,"43":-0.0660659039390244,"44":-0.03361348495343536,"45":0.06947613282023184,"46":0.117829683703609,"47":0.16220688697977476,"48":-0.008396377034946171,"49":-0.1252656198729378}},{"sx":1,"sy":1,"depth":50,"w":{"0":0.1289554901447852,"1":-0.0659097411562899,"2":-0.04144354592020608,"3":0.178236892411727,"4":-0.03795670821177589,"5":0.12057801778443462,"6":0.09478339172064314,"7":0.023527176032841945,"8":-0.06872292030523282,"9":0.20251407953480977,"10":-0.10641048422383866,"11":0.1044753350136828,"12":-0.0029235177393127864,"13":0.0025927097623702775,"14":-0.0035948983150617254,"15":0.03829639041816997,"16":-0.036902153453123566,"17":0.11294872717731128,"18":-0.1505699315608776,"19":-0.20178501673005403,"20":-0.15239119653413097,"21":0.03769120675582068,"22":-0.01152092231247895,"23":-0.08100984823791722,"24":0.11124860291791891,"25":-0.007191062134778564,"26":-0.03692955428047989,"27":-0.0031073820840249,"28":-0.060979190609876444,"29":-0.05306851474667793,"30":-0.02890506183833578,"31":0.6711198071954867,"32":0.6518970289435101,"33":-0.14508615706005298,"34":0.13241271890524853,"35":-0.06559721706997516,"36":0.14348011095564303,"37":-0.5237647911863593,"38":-0.01944778770786817,"39":0.23863306937465484,"40":0.47592786761757616,"41":0.04224985311853686,"42":0.10115418123083801,"43":-0.07508397252618255,"44":0.07355265294029249,"45":0.10034515531992311,"46":0.13122763713335386,"47":0.05999377942491556,"48":-0.0019127764445855972,"49":-0.2359588545142501}},{"sx":1,"sy":1,"depth":50,"w":{"0":0.002306652323664687,"1":0.0013223905494067492,"2":-0.006191540803360165,"3":0.08177973353461333,"4":0.08189792854338589,"5":0.06697639655706568,"6":0.1800034443699339,"7":-0.03903149123711138,"8":0.032644591955315584,"9":0.18457267029109858,"10":-0.08820538329790167,"11":-0.02847577097610396,"12":0.0810984251271707,"13":-0.03154892900578089,"14":-0.014268956154880672,"15":-0.1588513671792115,"16":-0.02685782912287881,"17":0.026416939001931854,"18":-0.04068005228124412,"19":-0.05854027804891743,"20":0.06313159219136148,"21":-0.09838571095217578,"22":-0.02729455058715201,"23":0.1008347279117795,"24":0.04134762281632397,"25":-0.13856751396385691,"26":0.00721193472416604,"27":0.11280639634469357,"28":-0.0757300023350489,"29":-0.05377680142194753,"30":-0.07336752594757455,"31":0.16733585705172166,"32":0.007405716352192437,"33":-0.07595817099060173,"34":0.054262638407235476,"35":-0.08977187774692784,"36":0.1382120491400154,"37":-0.22531558684323552,"38":0.012512379968663058,"39":-0.010544210323197654,"40":0.2632804876775764,"41":-0.0739231420264846,"42":0.17395840297636642,"43":-0.12710218660073042,"44":-0.00030227902731754473,"45":-0.0009891712957448484,"46":-0.04828914917253425,"47":0.13822526883820027,"48":-0.012586156627038738,"49":-0.05815442940107226}},{"sx":1,"sy":1,"depth":50,"w":{"0":-0.01633878599413948,"1":-0.1430961179425244,"2":-0.05002306708488131,"3":0.0632958374131067,"4":-0.040246277541687414,"5":0.00045938967546425586,"6":-0.004480074079257899,"7":0.10150542502330034,"8":0.07473880849316492,"9":0.0046738196263315405,"10":-0.008496906855110188,"11":0.08616931522651865,"12":0.050129754228257106,"13":0.1281336426648289,"14":0.06995327937384735,"15":0.01244519206844202,"16":0.07688725141184502,"17":-0.01602361958170811,"18":-0.01299995921621968,"19":0.12646415878074618,"20":0.07482740323849965,"21":-0.15639661481857636,"22":0.026568855476703353,"23":0.008220091993742991,"24":0.015451841615308834,"25":-0.06082531258838008,"26":0.0701861067309441,"27":-0.1371700809108813,"28":-0.027678402448182603,"29":-0.05625369229022293,"30":0.12487392766608908,"31":-0.044222324480377766,"32":-0.010867765418776607,"33":-0.01362122176763726,"34":-0.0477641072777303,"35":-0.013856626399635594,"36":0.01721050712903575,"37":-0.1159979281335349,"38":-0.03841878656258599,"39":-0.09166640059300918,"40":-0.034640942273683924,"41":0.04453154284183351,"42":-0.0069704785267093,"43":0.03813493841338205,"44":0.059750577031925094,"45":0.02448712803868634,"46":-0.04032591529081614,"47":0.0482655753824625,"48":-0.07626507422257066,"49":-0.04069935110558383}},{"sx":1,"sy":1,"depth":50,"w":{"0":0.047518446365515415,"1":0.14601180195231234,"2":-0.11040696255850604,"3":0.14159256879164492,"4":-0.004766839097066724,"5":0.001988013009470984,"6":0.057595009015406595,"7":-0.1057929610605272,"8":0.12136778479384834,"9":-0.014579512630181264,"10":0.07108871215438235,"11":0.01028331771385454,"12":0.12363516361787416,"13":-0.09725552148127474,"14":-0.06037137457188864,"15":0.056240668803704486,"16":-0.004816376935806753,"17":0.07216731036200486,"18":-0.062097217910004145,"19":0.051133917129331886,"20":0.03510750364966198,"21":0.1150470934309446,"22":0.07614748505203914,"23":0.030647355132224854,"24":-0.03476054104332278,"25":-0.05312617135677799,"26":-0.03703724346541837,"27":-0.07985622061961067,"28":-0.2181382233472316,"29":-0.0223693921338022,"30":0.007502819159182886,"31":0.0012472196814147225,"32":-0.024095455799969096,"33":-0.09465301238703394,"34":-0.15440879954380454,"35":-0.09276538549139836,"36":0.027286487939178625,"37":-0.09683526712612746,"38":-0.060173354095380854,"39":-0.07845896144656721,"40":-0.0953171149855493,"41":-0.20310289097659995,"42":0.014754244053197982,"43":-0.00831495460594561,"44":0.0009023404640401641,"45":-0.041726306164704643,"46":-0.1196663701175163,"47":0.05257165497559105,"48":-0.14148239708021235,"49":0.09440209082862089}},{"sx":1,"sy":1,"depth":50,"w":{"0":-0.0003086664629710473,"1":-0.025564958359265866,"2":0.09582983483875569,"3":-0.06047793323601686,"4":-0.07195228205690568,"5":-0.03790040565890866,"6":0.02190445334248531,"7":0.30781284425272387,"8":-0.109046608151276,"9":-0.14448480357090215,"10":0.039697669744129506,"11":0.12059398599179519,"12":0.047032847587517995,"13":-0.0614232235469474,"14":0.1591935668929837,"15":0.08167433903475643,"16":-0.028650260560859078,"17":0.05758515667165612,"18":-0.073841964500778,"19":-0.008614582433870446,"20":-0.0031780174923728725,"21":0.22076949203471244,"22":0.1187571913344386,"23":0.04227157149619481,"24":-0.03564319038043022,"25":-0.11093544039927226,"26":-0.09676546191199757,"27":-0.053583337766198634,"28":0.025129942417360145,"29":0.1460815304063319,"30":0.06267170999578697,"31":0.0365778191200428,"32":0.10334541586068204,"33":-0.21384014391943837,"34":0.1040305174546242,"35":0.036273702914682,"36":0.2735793343830435,"37":-0.02879429414586368,"38":0.021027475508355032,"39":0.02633439622817564,"40":0.023559874012147278,"41":-0.02252621872254699,"42":-0.01827078820607696,"43":-0.037681791353588186,"44":0.042445036884915945,"45":-0.07091169684816863,"46":-0.11526008517442138,"47":0.0512679521192442,"48":-0.05680167930955066,"49":-0.07380310286359337}},{"sx":1,"sy":1,"depth":50,"w":{"0":0.17035624082294434,"1":0.08739870227870314,"2":-0.07195607187398308,"3":0.2361590680590563,"4":0.11034618840478162,"5":-0.0067883739697898815,"6":0.0749969153795088,"7":-0.06867431054230842,"8":-0.26887450228697707,"9":0.025928906850845243,"10":-0.08555037568374205,"11":0.0030968145973681842,"12":0.01651769854600242,"13":-0.03480255021550323,"14":-0.13901473457671978,"15":-0.05851429086533047,"16":-0.1845842305096492,"17":-0.019275261281736674,"18":-0.13721222342047168,"19":-0.1343577043899583,"20":0.30586500487866836,"21":0.06825841973070472,"22":0.046162020582541395,"23":-0.10677162537215064,"24":0.15163350823035196,"25":-0.05515410198699418,"26":0.17797711222991452,"27":-0.176115344821117,"28":0.1476707502218075,"29":0.2137107518866897,"30":0.03442507937737403,"31":0.3300774949781646,"32":0.41419367598218676,"33":0.06766799449414593,"34":0.3543500457112628,"35":-0.07654872624924376,"36":0.2160116031417437,"37":-0.42400374599801777,"38":0.1512510235970049,"39":0.12343361908026562,"40":0.27335873865817817,"41":-0.08605278071150899,"42":0.1583909197884052,"43":-0.11261245621279965,"44":0.18025530089292474,"45":-0.02026281730736419,"46":0.06859931463324996,"47":0.0567640372100851,"48":-0.14843582459034696,"49":-0.026705244238928377}},{"sx":1,"sy":1,"depth":50,"w":{"0":-0.1878723841522587,"1":-0.07982501571211882,"2":-0.20949246245141864,"3":0.08956928726727417,"4":0.08293407266461836,"5":-0.007255480958604579,"6":0.18059208712628474,"7":-0.2475992082999258,"8":-0.022662213915235128,"9":0.018279906001041207,"10":-0.016272142657739207,"11":-0.014663864317638163,"12":-0.030796668723132414,"13":0.11396689523087353,"14":0.10053144203794014,"15":0.14525975495909146,"16":0.0635436230390781,"17":0.09745053485160274,"18":-0.10005414397844341,"19":-0.0740101693955923,"20":0.14404855874902214,"21":0.381832520349788,"22":-0.03163786748611454,"23":0.13859174718890413,"24":-0.24678798268158117,"25":0.20524611325910885,"26":0.02313022307814034,"27":-0.04523325961944153,"28":0.2527338450676922,"29":-0.5000108465398143,"30":-0.08789054024656044,"31":-0.279641626917927,"32":-0.09781217489072921,"33":0.031200359630596877,"34":0.29989420354040486,"35":-0.03336919984590883,"36":-0.015688792211063857,"37":-0.2133211244133086,"38":-0.18822556630470402,"39":0.16190606049057915,"40":-0.1309520141726816,"41":0.06201844955602059,"42":0.27746749274982946,"43":0.03060093450476241,"44":0.0008853704568392926,"45":-0.09400533970415142,"46":0.2049735417570899,"47":0.24211389339429484,"48":0.17250381209074528,"49":0.13575206038807472}},{"sx":1,"sy":1,"depth":50,"w":{"0":0.14996144574761588,"1":0.20283738496133807,"2":0.1283933421705734,"3":0.040215670032813976,"4":-0.08191280059675862,"5":-0.012248786213273232,"6":0.014947458796916594,"7":0.15735695247984993,"8":0.07578901661800186,"9":0.05737327330163161,"10":-0.023469379727850785,"11":0.03342802736494039,"12":0.1379994408115937,"13":0.023128115586830523,"14":0.10830235221603832,"15":-0.06374581785354017,"16":0.045120118744389995,"17":-0.09042735007237783,"18":0.35510742586663574,"19":0.1592497344762555,"20":-0.16152663898780667,"21":-0.22281812893775532,"22":0.06611922623898145,"23":-0.09590457107396003,"24":0.17520260988638892,"25":0.018499437811380526,"26":-0.12940143342384147,"27":-0.01787709499575811,"28":-0.1077550835274359,"29":0.2012338183103798,"30":0.03257062846536552,"31":0.24142258477789635,"32":-0.0008954952441236559,"33":0.08959121191618283,"34":-0.44786125228177437,"35":0.048992094155067854,"36":0.16301911417456685,"37":0.08410423877358304,"38":-0.03498329723979936,"39":-0.11467507492226191,"40":0.137734721263582,"41":0.01287412817989371,"42":-0.19529454935002089,"43":0.13473427631097765,"44":-0.040401977559890334,"45":-0.018014597119351987,"46":0.06556636627238159,"47":-0.17871100720476638,"48":-0.03130143028127238,"49":0.0629442340777013}},{"sx":1,"sy":1,"depth":50,"w":{"0":0.04692669901134509,"1":-0.16037777081018056,"2":0.0237597892438839,"3":-0.06343904196797918,"4":0.02978382006886826,"5":-0.018267112714795353,"6":0.11396958216679884,"7":-0.16251748870707497,"8":-0.12546456826720306,"9":0.0005865997838932491,"10":0.0483516152211471,"11":-0.04674604786175133,"12":0.03685431472606963,"13":0.14340177695793216,"14":-0.01092046887180666,"15":-0.07401413078850697,"16":0.08941982209679981,"17":-0.11365098314502357,"18":0.0030581590333980447,"19":-0.18526327776082244,"20":0.1460132292386838,"21":0.18222411926694823,"22":-0.19457677301644305,"23":0.021150986687405587,"24":0.0464213182318238,"25":0.18575563362767264,"26":-0.1420152627470737,"27":-0.0618692110366793,"28":0.33344710582947,"29":-0.45048816595507946,"30":0.023759691917118707,"31":-0.3335487089262989,"32":-0.06948750307239185,"33":-0.1437629714273569,"34":0.36067182435362344,"35":0.005514723213368775,"36":-0.2777550886183324,"37":0.1971727939520361,"38":-0.07469902582886959,"39":0.09828214099098916,"40":-0.10717585164247169,"41":-0.07196889015434732,"42":0.00020277705861417784,"43":0.10399979754648836,"44":0.07652841875840696,"45":-0.05711480943962852,"46":-0.09482110172129535,"47":0.2142900012323667,"48":0.16450352079142333,"49":0.0004037781812913061}},{"sx":1,"sy":1,"depth":50,"w":{"0":-0.012775993963860914,"1":-0.03694187089725382,"2":-0.1601974146985467,"3":0.1007474910441715,"4":-0.01685861222632272,"5":0.04224008463854645,"6":0.02995438480991449,"7":-0.15035156892714382,"8":-0.05664651567041059,"9":-0.000010580715691578142,"10":-0.051916507915143045,"11":-0.04663412005769337,"12":0.05339305362208522,"13":-0.07872257275830867,"14":-0.049020470653613236,"15":-0.04587494359197707,"16":-0.01775629016041598,"17":-0.012682455581598723,"18":-0.04535923637547174,"19":-0.06443262042651432,"20":-0.051290543081009464,"21":0.11163383884202148,"22":0.021014333650540656,"23":0.10993056270022321,"24":0.03678075221397676,"25":0.024128052751705834,"26":-0.05368191812241058,"27":-0.16296183730291652,"28":0.16580391034936964,"29":-0.12332083164505478,"30":0.06936312300554197,"31":0.09471994900806992,"32":-0.0818521244441066,"33":-0.13911673322896503,"34":0.07654724566144962,"35":-0.05480299394084324,"36":0.013119359283943142,"37":0.07038714236861107,"38":-0.13620507160015155,"39":0.014131436301877619,"40":-0.017622652317806152,"41":-0.057982138760615407,"42":0.09043961423826348,"43":0.04729245119650444,"44":-0.02987020706908171,"45":-0.024114327296997938,"46":-0.05741073246412133,"47":0.10794762381705758,"48":0.04603824800517119,"49":0.03682770188226559}},{"sx":1,"sy":1,"depth":50,"w":{"0":-0.08099830330632525,"1":-0.0664906344381294,"2":0.05324653746293465,"3":0.007302903756240766,"4":-0.1291394606635933,"5":-0.09749159775035675,"6":0.046754101878672696,"7":-0.03795973583816719,"8":0.11465747902514416,"9":-0.08775354845890142,"10":0.039061386221781486,"11":-0.19352169010021852,"12":-0.009797599054660946,"13":-0.009159255494110332,"14":0.031205976079430278,"15":0.09643436779907294,"16":-0.006819847986403914,"17":0.01305687130291556,"18":0.015841173371186724,"19":0.053739932570546725,"20":-0.03253991971243254,"21":-0.09698022660784246,"22":-0.03645045897509292,"23":-0.018556773212366304,"24":-0.08651629329120414,"25":0.0009940714780629098,"26":0.0383197697918535,"27":0.09698476257816731,"28":0.09752211866628478,"29":-0.0022166637223440503,"30":0.0237426141477387,"31":0.06207840973534643,"32":-0.07785590299815245,"33":0.08004363460302731,"34":0.16574284074621726,"35":-0.08004705787163606,"36":-0.12224369918205062,"37":-0.07574689793039684,"38":0.0029015671561004237,"39":0.0014958328194527037,"40":-0.1771061171186688,"41":-0.004762027234913206,"42":-0.08934642435412207,"43":0.09487264694570371,"44":0.14378249357052778,"45":0.08727979228779906,"46":-0.04696893652721074,"47":-0.09308720882400638,"48":0.028265064457475286,"49":-0.036976190929977844}},{"sx":1,"sy":1,"depth":50,"w":{"0":-0.10958003595696546,"1":0.0016203446858576278,"2":0.0016601388794780156,"3":0.050094030786332316,"4":-0.01593018288717212,"5":0.00216635630280402,"6":0.0858698763336044,"7":0.04893348167293007,"8":-0.007516619804104308,"9":-0.07220074218145119,"10":0.17541843937246068,"11":0.007167397715099529,"12":0.09323149541284981,"13":0.06581833842445005,"14":0.01617561063154709,"15":0.07179268026734534,"16":0.013186021258909462,"17":-0.037661435727939355,"18":0.06621368033004797,"19":-0.00673885932840513,"20":-0.11685402514774981,"21":0.0870070755794191,"22":-0.0520899800895429,"23":-0.07884275870621711,"24":0.04905303625338691,"25":-0.16746761131087412,"26":-0.015882106556033962,"27":0.06980758160954958,"28":-0.02299211552741593,"29":-0.09765527473945271,"30":0.013050258177801177,"31":0.11994732325638112,"32":-0.14910250412000028,"33":-0.04088965398643917,"34":-0.21849300029794277,"35":-0.019125293560115744,"36":0.0009227558489056428,"37":0.07299466367676248,"38":-0.06378177902040028,"39":-0.17152294712044963,"40":0.015674450349448966,"41":-0.07002251201369326,"42":-0.03408107257067639,"43":0.04682166428511631,"44":-0.06815228903198454,"45":-0.019914405795022287,"46":-0.07940003318434076,"47":0.004732831865861564,"48":0.020974179649850315,"49":-0.15806612488430552}},{"sx":1,"sy":1,"depth":50,"w":{"0":0.06660127643778449,"1":0.05143221201017106,"2":0.0245808035186852,"3":0.1482179084013041,"4":0.14174051975173146,"5":0.12311716816451003,"6":0.01638375218585591,"7":0.0521200528423803,"8":0.06960460281572814,"9":0.12537135837168115,"10":-0.08815698601209844,"11":-0.05513369939382047,"12":-0.0701875619373157,"13":-0.0005474628530998296,"14":0.01509902039115992,"15":0.0244177945766571,"16":-0.10982045384793579,"17":-0.004179622917312449,"18":0.02623266508879216,"19":-0.06430374567854118,"20":-0.19634192271473455,"21":0.12299921974505086,"22":-0.028643206467336594,"23":-0.017719831843278234,"24":0.07221405217136158,"25":-0.08102368774428398,"26":-0.0687611919292221,"27":0.10771292480842598,"28":-0.02021467160206178,"29":0.09159346014683617,"30":-0.16965650299479512,"31":0.11029673227242551,"32":0.3056630063747118,"33":0.003951317117494234,"34":0.12195830695137899,"35":-0.06933314086663964,"36":0.14616684449335723,"37":-0.5006585050535911,"38":-0.04176378413999403,"39":-0.058908744380162636,"40":0.20143948093278002,"41":-0.0204176153562358,"42":0.20695888453373812,"43":-0.11369856497828522,"44":0.12487317733557084,"45":0.12468185938288373,"46":0.027078686489117307,"47":-0.02029629292420462,"48":0.08266884905658373,"49":0.129493915543508}},{"sx":1,"sy":1,"depth":50,"w":{"0":-0.12922326117927313,"1":0.035757853802047344,"2":-0.09950986000467502,"3":-0.030899451482592145,"4":-0.07795693226106049,"5":-0.013740183308431356,"6":-0.04098617595684884,"7":0.26581317871185506,"8":-0.07791934342667192,"9":-0.018704671090138403,"10":0.039867272133505556,"11":-0.0021510717531042817,"12":-0.013523925108980213,"13":0.07783498214500797,"14":0.083846445011878,"15":-0.0020233212555367777,"16":-0.004045953464886913,"17":-0.05311202209930846,"18":-0.10772290769214139,"19":0.0640217286623648,"20":0.09909709635293336,"21":0.2325957284685871,"22":0.07736932396278275,"23":-0.15618123948952548,"24":0.07803175665807452,"25":-0.157777906039301,"26":0.0871623108871553,"27":-0.023856291879814664,"28":0.10338229292074365,"29":0.16514336642844202,"30":0.008023391714124877,"31":-0.1721160854487426,"32":0.11697537997760277,"33":-0.26089150786862675,"34":-0.004360580213178176,"35":0.02997909589537529,"36":0.11030523494925708,"37":0.17324955953276408,"38":0.1369663556139629,"39":0.035282717743537084,"40":-0.10584119696063479,"41":0.010298475447850569,"42":-0.1818154749942533,"43":0.12876104246229503,"44":0.03356196840037094,"45":-0.01115423251916534,"46":-0.07566896474533634,"47":0.00048375187687628516,"48":-0.09245717598772453,"49":0.09764504876701477}},{"sx":1,"sy":1,"depth":50,"w":{"0":-0.17561857960549285,"1":-0.17753041527612012,"2":0.14866684990194343,"3":-0.014308005687344737,"4":0.03305520444199561,"5":0.07130336897195988,"6":-0.030074533211830467,"7":-0.2168931589114558,"8":0.013714626820004266,"9":-0.1171509632910233,"10":0.016669873498471145,"11":-0.012948576672618083,"12":-0.07279981777775929,"13":0.01701479698914126,"14":-0.06416799185904211,"15":-0.013269037467091517,"16":0.013259135621162958,"17":0.0424574541700934,"18":0.03732282235427766,"19":0.01604835986194353,"20":0.10944093054239418,"21":0.026593318397031964,"22":0.05966380171725617,"23":-0.11293845682876644,"24":-0.05409821802888053,"25":0.12365816826356073,"26":-0.015018095632097715,"27":0.08357718928117674,"28":0.07727419441710691,"29":-0.21622330771651962,"30":0.20066094803234882,"31":-0.1417124891230828,"32":-0.12050708917047356,"33":0.04749873168500851,"34":0.2751311470055976,"35":0.0724855237767836,"36":-0.0982203529713026,"37":0.13453535255392218,"38":-0.10719638861767089,"39":-0.03250454665464199,"40":-0.1357687649866638,"41":-0.020562805379191106,"42":-0.05684540242132245,"43":0.10741000699772166,"44":-0.029755057561159322,"45":0.04512628040262632,"46":-0.08822498013674568,"47":0.1665176736905588,"48":0.0655173202164265,"49":-0.0034144950862266595}},{"sx":1,"sy":1,"depth":50,"w":{"0":-0.09273954181005827,"1":-0.1671226860281886,"2":-0.18231378888203792,"3":0.07132513272988898,"4":0.013984530807666127,"5":0.015514137621607537,"6":-0.03715513419564289,"7":-0.15642038479605916,"8":-0.08678483692739467,"9":-0.07378090143857272,"10":0.0323501981841848,"11":-0.0005445771623662803,"12":-0.0633617523569301,"13":-0.14817361008379457,"14":0.16823585057856985,"15":-0.040777475776436194,"16":0.07565003302406464,"17":0.032030149187560315,"18":-0.05905102784549588,"19":-0.023659684084237388,"20":0.16713962352646847,"21":0.09934807392923854,"22":-0.14218410413568638,"23":0.09486897011603761,"24":0.043568783935438414,"25":0.06944094711504348,"26":0.11804628969325574,"27":-0.10205798974656434,"28":0.14381350613160618,"29":-0.2546041111963545,"30":-0.027753875472721526,"31":-0.022738260539408965,"32":-0.11450229502538509,"33":-0.01182155022679686,"34":0.20365262463229217,"35":0.08942453133233408,"36":0.025765216920281043,"37":-0.14487808881697287,"38":-0.05643094215682435,"39":0.005153139582561115,"40":-0.06117497136894375,"41":0.12221581921517445,"42":0.18326512437550221,"43":-0.021995818382558877,"44":0.18600636182520586,"45":-0.14544312130486137,"46":0.14469309306051722,"47":0.057540330729705484,"48":-0.019409009232104733,"49":-0.08901715760116516}},{"sx":1,"sy":1,"depth":50,"w":{"0":-0.0033103420532540903,"1":0.003690154977019947,"2":-0.1439489579511864,"3":0.11669546800293497,"4":-0.028371842494848566,"5":0.03431531477139903,"6":-0.10017101418127758,"7":0.13421939504397545,"8":-0.10079526455219298,"9":-0.009327584958346166,"10":0.02208426463500345,"11":-0.04921746361369455,"12":-0.02984262945398841,"13":0.09318974925977036,"14":0.05386349081877543,"15":-0.08186183481529058,"16":0.10928370677727173,"17":0.0248266423954963,"18":-0.04862119803291673,"19":-0.025587912027685095,"20":-0.0036512520827350196,"21":-0.01766754525395473,"22":0.070750920293211,"23":-0.02668315170381637,"24":-0.1450565735442825,"25":0.04762019119489176,"26":-0.04192698400165245,"27":-0.10712585314514662,"28":-0.10190459106986312,"29":-0.08446620431675898,"30":-0.06568096810466201,"31":-0.04434607090533057,"32":-0.10678950969251054,"33":0.04871962700784607,"34":0.027364278314214053,"35":-0.12468169154490252,"36":-0.07983037183519778,"37":0.015509526243863868,"38":0.13764358967587126,"39":0.01156614284598659,"40":0.07127192526155278,"41":0.0879419655958667,"42":0.018456884088230083,"43":-0.043857002223110564,"44":-0.03484751341434808,"45":0.05144372602096709,"46":-0.00710506822797193,"47":0.0720122968512217,"48":0.021012298689025766,"49":-0.013512532175050586}},{"sx":1,"sy":1,"depth":50,"w":{"0":0.01308473241858438,"1":-0.06402457262306824,"2":-0.07387874717174946,"3":0.1326638548306696,"4":0.018344926282607133,"5":0.1851289943010219,"6":0.05535306024041771,"7":-0.21826597506804815,"8":-0.17089383081039888,"9":-0.036249880036620385,"10":0.0831338065230308,"11":0.03307055637298534,"12":0.020270167728297622,"13":0.06636971386658631,"14":0.20986837179613652,"15":-0.08033590951382683,"16":0.017382437835504798,"17":0.10613271313457483,"18":0.009749509411576871,"19":-0.013267781640325802,"20":0.16880813154941857,"21":0.2803558814696754,"22":-0.0061127309202136226,"23":-0.07651806260913979,"24":-0.09876281657536688,"25":0.07912077977675677,"26":0.052998155064856854,"27":0.17645600275594606,"28":0.05275190649748718,"29":-0.1303219768291373,"30":-0.03574865290690095,"31":-0.1357785453539988,"32":0.036320225398389736,"33":0.05455640052378431,"34":0.15028737007283566,"35":-0.0007141956695971271,"36":-0.03993764669088206,"37":-0.13960853566125012,"38":-0.05688397048513133,"39":-0.023442509820498145,"40":-0.10277417978711756,"41":0.005811394205479477,"42":0.09947103761765418,"43":0.15372654877163028,"44":-0.009392660023548298,"45":-0.0887005769987323,"46":0.029439833889537078,"47":0.06803938211416903,"48":0.07270540698844866,"49":-0.07876722280127786}},{"sx":1,"sy":1,"depth":50,"w":{"0":0.03764308382907346,"1":-0.05754957510055061,"2":-0.007411567250723727,"3":-0.03173113579510416,"4":-0.008748880195616093,"5":0.0663167047710786,"6":-0.028686732759166538,"7":-0.09220379487858525,"8":-0.08104010631959799,"9":-0.13853180417783006,"10":0.020747125447245045,"11":0.009456359645027744,"12":-0.012583271271897163,"13":-0.053659420078240594,"14":-0.036148910056129496,"15":-0.06453836146795743,"16":0.04519391461109359,"17":0.013992034882056944,"18":0.04178696559254498,"19":-0.016161080138272884,"20":-0.15412621788731032,"21":0.12902490248968534,"22":-0.017690868014042935,"23":-0.06433316262842749,"24":-0.0261469589737723,"25":0.03629900589357513,"26":0.04630129852149588,"27":-0.024327339107637038,"28":-0.11633037064652264,"29":0.030623499010847068,"30":-0.021593471956298946,"31":-0.003217327396963148,"32":-0.14687711274132573,"33":-0.06575727564750497,"34":-0.1662378588542183,"35":0.04836014472236725,"36":-0.1680859089065472,"37":0.12447715515496566,"38":-0.0012990167072721823,"39":-0.02286942993857791,"40":-0.07388729553595437,"41":0.07286251837404649,"42":-0.02883364612926395,"43":0.04752530439828296,"44":-0.05465545683719322,"45":0.012431956521758903,"46":0.035754116957811805,"47":0.07005785881304684,"48":-0.05900217001390645,"49":-0.06068935798298723}},{"sx":1,"sy":1,"depth":50,"w":{"0":0.02014191235397378,"1":0.029919758546054814,"2":0.043465001591378914,"3":-0.20366656630437907,"4":0.01851950599529883,"5":0.030999963355774613,"6":0.025973037103116305,"7":0.17967398710444313,"8":0.04759409073665173,"9":0.22490723129224757,"10":-0.033105877817968456,"11":0.03107999362189136,"12":0.12196389679841538,"13":0.08202386320087487,"14":0.07965375354499543,"15":0.010513995128146334,"16":0.03895333870274547,"17":0.07145172615320745,"18":-0.14829885503295062,"19":0.0660726649535476,"20":-0.0016634303335989536,"21":0.10769373591747483,"22":-0.01585897921815985,"23":-0.15911862327601078,"24":0.03183960790088654,"25":0.0662429795542085,"26":0.08065272184674029,"27":-0.010952578172216643,"28":0.17962623430848568,"29":-0.01336304978113754,"30":0.05188475430256411,"31":-0.15304632827479298,"32":0.45793204638504925,"33":-0.17875949014842166,"34":0.00012950336720198404,"35":-0.022154929723559997,"36":0.057646008998548506,"37":0.03712612141429563,"38":0.1675461349211835,"39":0.09315740931190147,"40":-0.13070277666106228,"41":-0.014046436649568528,"42":-0.07070158374816218,"43":0.06645019132125926,"44":-0.20155953786955944,"45":0.0021259709161235898,"46":-0.2671587407013582,"47":-0.03998244921803093,"48":-0.06807996215540996,"49":-0.04333523144688528}},{"sx":1,"sy":1,"depth":50,"w":{"0":-0.0598415464911268,"1":0.13110115710437256,"2":-0.012268375461744195,"3":0.027647966129625317,"4":-0.050069658736015585,"5":-0.09615902488065281,"6":-0.022684516798272387,"7":-0.05289540325791626,"8":-0.06339794648197408,"9":-0.06529181163822988,"10":0.13387621102767058,"11":-0.013058846862439084,"12":0.026613691295321446,"13":-0.03214028063747047,"14":-0.04079882247739736,"15":-0.04234125088330524,"16":0.031743015253540924,"17":-0.024790068131270455,"18":-0.10766027363280944,"19":-0.03332431811353541,"20":0.0902619125291315,"21":0.06219305042257931,"22":-0.03178663774571723,"23":0.11340387224643166,"24":-0.08741579944020708,"25":-0.08437242152709207,"26":0.012862499910852884,"27":0.02628471729318095,"28":0.06166294598316883,"29":0.2059535873286561,"30":-0.035446081558604445,"31":0.012088589733681227,"32":-0.03805376374378615,"33":-0.07614378355498792,"34":-0.02412432852339201,"35":0.0766813516812275,"36":-0.05202106764283544,"37":0.1322350173737381,"38":0.004138600123144384,"39":-0.1276236852993133,"40":0.14921497529543343,"41":-0.004909935601138113,"42":-0.1408194073957323,"43":-0.14621043178273258,"44":-0.09971935099916283,"45":-0.09540943806392586,"46":0.013806715901269124,"47":0.05123346534461572,"48":-0.07815829155082686,"49":0.030375483356865084}},{"sx":1,"sy":1,"depth":50,"w":{"0":-0.009157293660047779,"1":-0.01204745365327807,"2":-0.1851180783798681,"3":0.014141639948075638,"4":0.05885465659324331,"5":0.056248614898012216,"6":0.02087619459175233,"7":-0.14223767687382619,"8":0.014481432943506586,"9":0.03538725671924138,"10":0.02865195916223087,"11":-0.17723117305271985,"12":-0.13980593217972237,"13":-0.10021193408825356,"14":0.11552908686854318,"15":0.07799838775391857,"16":-0.18098451568227783,"17":0.0634371294384137,"18":-0.13399058948774806,"19":-0.030263939596082538,"20":-0.03191520527995125,"21":0.281226297608617,"22":-0.014878543841387851,"23":-0.045332995225779125,"24":0.011802985224091343,"25":0.0873343681562335,"26":0.0230769524709628,"27":-0.19201091054159972,"28":0.20553918455627954,"29":-0.12429335770540503,"30":-0.07552431829490486,"31":-0.02771497863256264,"32":0.21455835569338813,"33":-0.15492311004590328,"34":-0.030421038126216916,"35":-0.09092329415288398,"36":-0.06761057630343426,"37":-0.13127553590244295,"38":-0.05885532493576604,"39":0.025352536094548107,"40":0.016020275344694117,"41":-0.06873779507080478,"42":0.08883546818440934,"43":-0.19163147031513744,"44":0.013857221526669258,"45":0.02348995362969199,"46":-0.11051060019702705,"47":-0.051079621567403984,"48":0.0570128191074676,"49":0.0047825405954776785}},{"sx":1,"sy":1,"depth":50,"w":{"0":-0.10058728397805679,"1":-0.011877741370168416,"2":-0.03954610244355645,"3":0.04446504609001984,"4":0.055245274141029456,"5":0.12557807550458333,"6":-0.029985731870667515,"7":0.0023996702680666253,"8":-0.0123538369508885,"9":-0.07594299071319995,"10":0.1313605948739059,"11":-0.022464069989044544,"12":-0.03281320150160177,"13":0.13475361810772607,"14":-0.08707120889664965,"15":-0.09742736536726372,"16":0.06408607842045821,"17":-0.09504069279134547,"18":0.033092993591932955,"19":0.07450690806810936,"20":0.027766850661696298,"21":-0.045291340580766386,"22":0.025228319932906036,"23":0.0499314414020988,"24":-0.0798492942860124,"25":-0.06898639150636919,"26":-0.0714889104285322,"27":-0.000583856277645845,"28":-0.05341641792366545,"29":-0.01244466774263079,"30":-0.11731073073749598,"31":-0.06850260249250184,"32":-0.08001544170826709,"33":-0.06783563865315329,"34":0.0011072487226327392,"35":-0.08080071442497538,"36":-0.01164857125564556,"37":-0.12045258990973638,"38":-0.012396049657026823,"39":0.2720563525478537,"40":0.14563218209942902,"41":-0.06079292100342742,"42":-0.07503530489003521,"43":0.05782230665244472,"44":0.06396773087313874,"45":0.05847653954339773,"46":-0.09000437019543982,"47":-0.0012464488202066997,"48":0.05255699705289559,"49":-0.21141715314409779}},{"sx":1,"sy":1,"depth":50,"w":{"0":-0.05073334153481581,"1":0.00029358143749581644,"2":0.017598049178290397,"3":0.02229933018690231,"4":-0.02268252256503397,"5":0.07792413655254328,"6":-0.13239074257567726,"7":0.049227709702057754,"8":0.019812950621127482,"9":0.004401615326780566,"10":-0.049051125163355414,"11":0.10491530982120789,"12":-0.024827658758487078,"13":0.14243762830115853,"14":0.07135540332400914,"15":0.024432528215338332,"16":-0.01932763267870955,"17":0.036248877631464435,"18":0.00980147141580433,"19":-0.018597670680127715,"20":-0.10044888072418534,"21":-0.07870218011439617,"22":0.11104590478438683,"23":0.01271760093955519,"24":0.0831400846387836,"25":-0.08458005740581952,"26":0.0029392188005920934,"27":-0.09700032732498082,"28":0.11112883938371787,"29":-0.013479136638590664,"30":0.001998409449713383,"31":-0.022393593412686815,"32":-0.12433896289617338,"33":-0.04809316436307487,"34":0.20655527103746416,"35":0.00921731246816765,"36":0.02607359868179616,"37":0.02686010461711708,"38":-0.10044416692611559,"39":0.04658821318692611,"40":-0.006357635903493858,"41":-0.01257174884654631,"42":0.08174032685027838,"43":-0.07346779238921386,"44":0.08451873575171034,"45":-0.17339947836724365,"46":-0.005639322016429835,"47":0.031053907919373264,"48":0.11948386227838273,"49":-0.0009710022354485301}},{"sx":1,"sy":1,"depth":50,"w":{"0":-0.00893557380030649,"1":-0.12224622171606186,"2":-0.049614614442798036,"3":0.09792409735744152,"4":-0.045896886878221244,"5":-0.016834353902823614,"6":0.19985969027461964,"7":-0.062126635311335436,"8":-0.022633238963671302,"9":-0.016561564212443758,"10":-0.02076576103920364,"11":-0.014643828178781928,"12":0.0343328436617446,"13":0.023233616659378408,"14":-0.018775506511624584,"15":-0.07561286608832442,"16":0.040804242456513144,"17":0.11300703707866186,"18":0.08804769157754205,"19":0.1278434927000041,"20":0.20192112884221997,"21":0.10065036407252323,"22":0.017274969430514073,"23":-0.026415260141922414,"24":-0.033498211037469014,"25":0.028403565018162217,"26":0.021119130948084458,"27":0.016705640533085164,"28":0.12607941496816344,"29":-0.1849333771294004,"30":-0.053060349534903406,"31":0.0027420514320280883,"32":-0.16474076839377283,"33":0.12852555467019064,"34":0.10337428291718541,"35":0.02913481229733083,"36":0.10352986026216064,"37":-0.1015999905926202,"38":0.06315474122498681,"39":0.0832785178424094,"40":-0.09496427444725263,"41":0.014944140971927311,"42":0.24475453670304217,"43":0.077046815188608,"44":0.03146042373317254,"45":-0.08823025607157768,"46":0.08887471870533288,"47":0.01737777390423558,"48":0.0839812025847158,"49":0.10744980588252608}},{"sx":1,"sy":1,"depth":50,"w":{"0":0.12865375018851916,"1":-0.0876768003642014,"2":-0.19833037798143052,"3":-0.07077628884198126,"4":0.004443171128572454,"5":-0.11976220354431899,"6":0.03801114263562508,"7":-0.14622031415923453,"8":0.049085839008809196,"9":0.12631244037031505,"10":-0.1522692484949975,"11":0.052980129357412524,"12":-0.1207646400725816,"13":0.13079093992869556,"14":0.004817194899276728,"15":0.09069314710642665,"16":-0.06672091217318167,"17":0.030432933601185253,"18":-0.08904203714174275,"19":-0.15701150624998317,"20":0.0336622174661366,"21":-0.06637341846842842,"22":0.08023802258984493,"23":0.016998294487853612,"24":0.11976756780454624,"25":0.06964304513431592,"26":-0.12312096900063288,"27":-0.003386198764392599,"28":-0.020493086980818212,"29":0.012670491354147781,"30":-0.11182956227111795,"31":0.020860903808066652,"32":0.2556625377941672,"33":0.00708663597337623,"34":0.028110217378977623,"35":-0.09524394658672035,"36":0.07236349664020365,"37":-0.14704304913406302,"38":0.16018192625995736,"39":0.14674198394137128,"40":-0.014732327135058733,"41":0.05271482647705788,"42":0.1851176598903074,"43":0.015312148180228581,"44":-0.0064379225803455455,"45":0.03568298018658172,"46":-0.022126949837630517,"47":-0.031603133659617456,"48":-0.15580429616565974,"49":-0.07836758552685238}},{"sx":1,"sy":1,"depth":50,"w":{"0":0.06377429050562688,"1":-0.004647950767580107,"2":-0.0031391210917320017,"3":0.17085222623375435,"4":-0.02064142079901983,"5":-0.04754733828489586,"6":-0.03027892181692061,"7":-0.14996260678873222,"8":-0.0882964605068809,"9":-0.04410419202416664,"10":0.1746987011593271,"11":-0.013593519894113823,"12":-0.013663225993732422,"13":-0.05511605185257294,"14":0.023804726632753657,"15":0.06906558932799946,"16":-0.013065897668331867,"17":-0.026312869016048415,"18":-0.013859373290821805,"19":0.0828705578181081,"20":0.011422090612046113,"21":-0.00695180165487842,"22":-0.11020706632357335,"23":-0.0027704603299951876,"24":-0.08900198300943826,"25":-0.0015523155975104253,"26":-0.12901788892915197,"27":0.10178506575365079,"28":0.08039505507851391,"29":0.2376074543807767,"30":0.022356639696440327,"31":0.07554757370290409,"32":0.02404703079817883,"33":0.1302786182335818,"34":0.00163380155135903,"35":-0.10229642273011245,"36":-0.056888564151425645,"37":-0.0464278038536154,"38":0.07161534507385901,"39":-0.03498497927780241,"40":-0.07438067673241701,"41":-0.06975465344266145,"42":-0.1564629846323324,"43":-0.019470740114256334,"44":0.007000750910829446,"45":0.06910702473043853,"46":0.044468357016077584,"47":-0.04716626749470779,"48":0.05551205876696258,"49":0.06966081602333651}},{"sx":1,"sy":1,"depth":50,"w":{"0":-0.008712384470081446,"1":-0.01616730487542731,"2":0.14414275043414096,"3":-0.02556916853832075,"4":-0.016181604781893233,"5":0.21982237857792264,"6":-0.00047507068500149375,"7":-0.029727268593622694,"8":-0.07509821305962056,"9":-0.05076585673895993,"10":-0.021378189784659777,"11":-0.07934885866379686,"12":0.11191165956165577,"13":-0.0061539555463087856,"14":0.07467324520536538,"15":-0.061022469198239,"16":0.05123825438226977,"17":-0.02664880238988604,"18":0.036662821996807655,"19":0.07080387988444978,"20":-0.04246140834932571,"21":0.017140173770126187,"22":0.05984745664877404,"23":-0.006587280047287851,"24":-0.024730643112698254,"25":0.009664980479792529,"26":-0.06309251817038836,"27":-0.013885638585095247,"28":-0.09411323392021376,"29":-0.0074473685356458005,"30":0.16051461834629635,"31":-0.001706146717300976,"32":-0.02217474095557077,"33":-0.021949364131945183,"34":-0.029716358861224514,"35":0.11576524493402258,"36":-0.009479450245738387,"37":0.004793006863599146,"38":-0.0809020077034809,"39":-0.020181432953446425,"40":0.14953219549550703,"41":0.08033787287900893,"42":-0.08701142569032623,"43":0.07626424543502196,"44":-0.1302460008542471,"45":0.05947774180570518,"46":-0.07672888146132281,"47":0.029564779252850483,"48":0.09747670430292428,"49":0.02985109741886101}},{"sx":1,"sy":1,"depth":50,"w":{"0":0.13969515629255302,"1":-0.03758461534377169,"2":-0.011943738252515448,"3":-0.007342754770253551,"4":-0.0023248163634748387,"5":0.017790969798943915,"6":0.05402623383363326,"7":0.14842731434536793,"8":0.014225980970663991,"9":0.012139892254944273,"10":0.10486599358769946,"11":-0.0060664361339568314,"12":0.10309357886910304,"13":0.04184621643857892,"14":0.02436739503257198,"15":-0.03569659123835062,"16":0.0934861394731614,"17":0.07337989671786735,"18":-0.04604700497266788,"19":0.07312177863474735,"20":0.1191425182113137,"21":-0.029435897546792895,"22":-0.0005991889699438576,"23":-0.0861362805398131,"24":0.04502558118561181,"25":-0.1379426229281919,"26":-0.041732611691942645,"27":-0.11527853115435939,"28":0.17677191298343498,"29":0.28976096726399064,"30":-0.10222116658804077,"31":0.1959212608457719,"32":0.25428554940808257,"33":-0.10650925894953386,"34":-0.21933647456981523,"35":0.12773336943830388,"36":-0.023972754934838435,"37":-0.07275027089665059,"38":0.012854490664300486,"39":-0.15545580146696686,"40":-0.021396357792096202,"41":0.14560361993053306,"42":0.03750480092724488,"43":-0.06840670647356126,"44":-0.006918515517410606,"45":-0.017841206229202097,"46":0.12537797947939142,"47":0.1920299932388918,"48":-0.11767966027948361,"49":-0.07640033557032264}}],"biases":{"sx":1,"sy":1,"depth":50,"w":{"0":0.08542407248754005,"1":0.25245042305432563,"2":0.09869933617642153,"3":0.07361525824318146,"4":0.12993150033516818,"5":0.08706902612686006,"6":0.28243618908724155,"7":-0.1383926455918396,"8":0.05298054477426765,"9":0.07094891065653477,"10":0.11312166277924088,"11":0.11115413768390088,"12":0.11514782424917348,"13":0.0873955814092535,"14":0.05902441978693204,"15":0.10897346151358239,"16":0.06827343004366687,"17":0.30797787107864155,"18":0.13323703430098857,"19":0.08374317311228993,"20":0.1381869460967687,"21":0.05068159105092992,"22":0.08279800592955641,"23":0.09301213571490426,"24":0.09666101911520202,"25":0.09845863284102703,"26":0.014363814240830464,"27":0.312844058408653,"28":0.09605108664736742,"29":0.24549398214348173,"30":0.13809285826255357,"31":0.09823045381344551,"32":0.07821267081821971,"33":0.06213264215233524,"34":0.07285950218797616,"35":0.17326568009632706,"36":0.1994920261583383,"37":0.09605261162397906,"38":0.20852143675003232,"39":0.10161246950784304,"40":0.07302976108139289,"41":0.08785336583087595,"42":0.10861117532797787,"43":0.10052024213097936,"44":0.11747595478343753,"45":0.18505594230402114,"46":0.05168697911966308,"47":0.09306896124059386,"48":0.10733846754586461,"49":0.06851490022109051}}},{"out_depth":50,"out_sx":1,"out_sy":1,"layer_type":"relu"},{"out_depth":5,"out_sx":1,"out_sy":1,"layer_type":"fc","num_inputs":50,"l1_decay_mul":0,"l2_decay_mul":1,"filters":[{"sx":1,"sy":1,"depth":50,"w":{"0":0.588665427212517,"1":0.37232702798518785,"2":0.0894639984751181,"3":-0.06107946412226709,"4":0.036103796951969386,"5":-0.11653670792888886,"6":0.4055389652123761,"7":-0.8526804694470664,"8":-0.16264544211575227,"9":-0.610472994240477,"10":-0.020377248811998247,"11":0.09515650172549421,"12":-0.023486748377543335,"13":-0.2000391843758996,"14":-0.3329144045505823,"15":0.23218408577007546,"16":-0.43718612172004184,"17":0.5593941761508276,"18":-0.6895789862610392,"19":-0.19211889141217747,"20":0.1343940701461568,"21":-0.7296110584756847,"22":-0.09438013464225484,"23":-0.047003534670575865,"24":-0.054540848838768294,"25":-0.39591876244970986,"26":-0.5327074926688687,"27":0.5444623553307274,"28":-0.3379739426183234,"29":0.3136418656050326,"30":0.16698550253604524,"31":0.04508798067816466,"32":-0.17473760851264955,"33":-0.20746389854962496,"34":-0.4094325910466761,"35":0.16298728269139592,"36":0.3556213135763107,"37":-0.037311430731721495,"38":0.1513641811427145,"39":-0.12038641431027756,"40":-0.0887905372299367,"41":-0.16144662965525924,"42":0.37367378697208253,"43":-0.1268453798600617,"44":0.16149130170174503,"45":0.24682957092576369,"46":0.10730213308632261,"47":-0.180217169795294,"48":-0.17947884727985872,"49":-0.38538499898409495}},{"sx":1,"sy":1,"depth":50,"w":{"0":0.25917552351256073,"1":0.26708172853342343,"2":-0.1611266836860734,"3":-0.5850123159989973,"4":0.199302153744533,"5":0.03335643020493506,"6":0.2862969995134675,"7":-0.9682145845373572,"8":-0.47792306148263025,"9":-0.6429835015105745,"10":-0.10201526747539565,"11":0.033111946183952565,"12":0.3988403490309388,"13":-0.1446467949127572,"14":-0.3264212625223599,"15":0.17369299335502694,"16":-0.4522791446794792,"17":0.441709582159134,"18":-0.13421009364892503,"19":-0.05475101720303429,"20":0.15661870905871758,"21":-0.4746531518707662,"22":-0.31881365370204984,"23":0.06090533472017977,"24":0.09764112154997008,"25":-0.09996412686524964,"26":-0.41379519323442604,"27":0.5393799663166077,"28":-0.38213940336596913,"29":0.6549366274183497,"30":0.15552989840782494,"31":0.16873971584172523,"32":-0.1102124977214654,"33":-0.6031131796537803,"34":-0.02518906371786375,"35":0.37059507396869096,"36":0.21822683575269178,"37":-0.010706912587872429,"38":0.30867373610101817,"39":-0.13679835131952314,"40":-0.08221646373227585,"41":-0.29864271027680755,"42":-0.04774748068363862,"43":0.0888151448706282,"44":0.14855193081924176,"45":0.16271312518586517,"46":-0.1301822728786307,"47":-0.14533455366991713,"48":0.07406997173010216,"49":-0.22125730275822647}},{"sx":1,"sy":1,"depth":50,"w":{"0":0.1596033188151077,"1":0.46170845014200057,"2":-0.1281449264429872,"3":-0.26745588330792286,"4":-0.48129696633840546,"5":-0.12228194889446348,"6":0.6327252244613513,"7":-0.7688952589282682,"8":-0.19753815056664562,"9":-0.3985520685181866,"10":0.05371622566587404,"11":0.21725594416316044,"12":0.2123915123194166,"13":-0.2408002385060691,"14":-0.4094311187568563,"15":0.1274161264118235,"16":-0.7017438028941309,"17":0.5115254259474262,"18":-0.35436643730944606,"19":-0.4286773011043332,"20":0.00561489764243304,"21":-0.8073307047879602,"22":-0.07889608327180202,"23":-0.007159085617100508,"24":-0.06563998798960588,"25":-0.21807199665182353,"26":-0.4177784247734289,"27":0.5055263029968118,"28":-0.5789121359994657,"29":0.17411995962304516,"30":0.06273820583027896,"31":-0.1321946956671983,"32":0.04684105248577717,"33":0.005344790559448543,"34":-0.306746808445976,"35":-0.04060551450949313,"36":0.2842308788440206,"37":0.0765729059761,"38":0.31792550387738,"39":0.08187491785539333,"40":-0.471958794119271,"41":0.045437747140089725,"42":0.2865940401386922,"43":0.0062417613840772225,"44":-0.1347882814426115,"45":0.10383667989709996,"46":-0.29501292061659545,"47":-0.19007436146646797,"48":-0.02753962067257526,"49":0.09886922477006227}},{"sx":1,"sy":1,"depth":50,"w":{"0":-0.1032600444029519,"1":0.2620513874001702,"2":0.12758774783875365,"3":-0.063023125913107,"4":-0.36041467945654165,"5":-0.12679335337895806,"6":0.460534215729433,"7":-0.5180330553296657,"8":0.05684593960018026,"9":-0.2546814385645194,"10":0.3066652277795414,"11":-0.045071916324640894,"12":-0.09029360379937017,"13":-0.3624334409352918,"14":-0.2707505915838549,"15":0.09328490918139908,"16":-0.2185237810739568,"17":0.379576425750271,"18":-0.1617284267014913,"19":-0.16211682190953644,"20":0.022633298484225545,"21":-0.3420969169682207,"22":-0.0832020446110181,"23":-0.02938938025368543,"24":0.06121847228969134,"25":-0.049245533601495355,"26":-0.28747695283712077,"27":0.36283258423759857,"28":-0.10268238382306713,"29":0.09729942422569182,"30":0.060097608718170395,"31":-0.05607867187336149,"32":0.06546112692378091,"33":-0.19349015884962567,"34":-0.15641006425678036,"35":-0.008647359359899702,"36":0.2444879922783348,"37":0.15039532250966914,"38":0.17899847047625156,"39":-0.09379304177625904,"40":-0.39061373899868435,"41":0.01599064842734603,"42":-0.2779907866825075,"43":0.07504927369971363,"44":-0.0017095104743902073,"45":0.4731834578689567,"46":-0.2347781342879194,"47":-0.034591175004818286,"48":-0.11820116721067843,"49":0.06333523415136762}},{"sx":1,"sy":1,"depth":50,"w":{"0":0.22348187265572908,"1":0.3421161112498861,"2":0.024377174706382034,"3":-0.3781412107042783,"4":0.14531818191171725,"5":-0.037014847097912425,"6":0.3279225401090619,"7":-0.6511085438577899,"8":-0.1311846729510051,"9":-0.33303981042395,"10":-0.027735950806277197,"11":-0.04327173834970721,"12":-0.008781641876489069,"13":0.006584836377310934,"14":-0.3881805713732297,"15":-0.10226324832318473,"16":0.04549952179883084,"17":0.3779694712284591,"18":-0.12201543174609066,"19":-0.1228294091731964,"20":0.06045474731611798,"21":-0.3255482254743076,"22":-0.36514267305478776,"23":0.07498572891842535,"24":-0.030671735496067283,"25":-0.15150593152783784,"26":-0.5023607076818766,"27":0.2671762376341029,"28":-0.29450499590187174,"29":0.5726049262676989,"30":-0.033582254992674504,"31":0.08523513089314932,"32":0.08816243959592775,"33":-0.3484412514877927,"34":0.08489386946073911,"35":0.4098529249897918,"36":0.054163266735769225,"37":0.05721678570400618,"38":0.18224986847480595,"39":0.15213467961941676,"40":0.2399198182501847,"41":-0.10879832912558009,"42":-0.03643152721560596,"43":0.0801264999635034,"44":0.007331606406168911,"45":0.21369973522884436,"46":-0.10642492971070594,"47":0.10985806697502638,"48":0.005655993624914537,"49":-0.08090703204814365}}],"biases":{"sx":1,"sy":1,"depth":5,"w":{"0":0.10884991262597446,"1":0.12854037921309755,"2":0.16805994777746625,"3":0.15393228340581824,"4":0.15972500128021966}}},{"out_depth":5,"out_sx":1,"out_sy":1,"layer_type":"regression","num_inputs":5}]}