{"layers":[{"out_depth":43,"out_sx":1,"out_sy":1,"layer_type":"input"},{"out_depth":30,"out_sx":1,"out_sy":1,"layer_type":"fc","num_inputs":43,"l1_decay_mul":0,"l2_decay_mul":1,"filters":[{"sx":1,"sy":1,"depth":43,"w":{"0":-0.24175284235753572,"1":-0.03441587015778008,"2":-0.23146043356281773,"3":-0.1516033753728488,"4":0.13411682957847312,"5":-0.18703767296888682,"6":-0.131752755481749,"7":0.20714913880023386,"8":-0.19333898256738233,"9":-0.251330577511371,"10":0.09683713089454143,"11":0.028078962761920973,"12":-0.2663754526021854,"13":-0.15470037322624666,"14":0.11382131531123214,"15":-0.3501359871895286,"16":-0.019920587023082165,"17":0.036052876606274625,"18":-0.12373478069628824,"19":-0.024341537813067506,"20":-0.08909540925449584,"21":0.27383517861746476,"22":0.141727100817019,"23":-0.10587572783528058,"24":-0.21620359516328158,"25":-0.0032821699395822533,"26":0.26459931642555307,"27":0.022572328956159758,"28":0.11018456680613425,"29":0.06555840495028771,"30":-0.22817361037974399,"31":-0.24129120426501477,"32":-0.022764495428747922,"33":-0.2839000010118452,"34":-0.035348200749448166,"35":-0.0501086703230964,"36":0.053491519398561865,"37":0.030152003852889072,"38":-0.17523765895106608,"39":0.03746455061411254,"40":0.09831150955567051,"41":0.04203123170195906,"42":-0.0794979907191968}},{"sx":1,"sy":1,"depth":43,"w":{"0":0.10966609450298245,"1":0.16129895451505208,"2":-0.015536166359140019,"3":0.14818260718970366,"4":-0.11952194762182156,"5":0.22330865921782872,"6":0.007307115790773579,"7":0.18078722359152366,"8":-0.28293888640797826,"9":0.03810276017709399,"10":0.027152995249499226,"11":-0.06742509070849227,"12":0.114341491486721,"13":-0.12479901236504062,"14":0.2656599774860088,"15":-0.1545777506655114,"16":0.23245632528828128,"17":0.032882333080454865,"18":0.11972564780777556,"19":0.22715849121146084,"20":0.14246981828827054,"21":0.28463656638958845,"22":-0.20420599426327138,"23":0.024658519807333548,"24":0.44773431321123747,"25":0.1749537563636373,"26":0.1460968770645471,"27":0.03761777629741682,"28":-0.17886210158212415,"29":0.09920712271695058,"30":-0.16456152765210477,"31":0.08790437990458128,"32":-0.09283748220301867,"33":-0.10894620853886437,"34":0.04671621591472089,"35":-0.2032199818698382,"36":-0.3766001845629241,"37":0.1241536500057869,"38":-0.29958054814818424,"39":0.00939946005824361,"40":-0.2557380323550235,"41":0.007399625675523698,"42":-0.00899708805756883}},{"sx":1,"sy":1,"depth":43,"w":{"0":0.054978066723241605,"1":-0.058652504763787285,"2":0.13244166289834494,"3":-0.010554610200694974,"4":0.07210586150187218,"5":-0.05851517180168093,"6":0.19351739759098233,"7":-0.05550330250774531,"8":-0.014272521410522734,"9":-0.08290895383640949,"10":-0.050680061542440084,"11":0.05450059939936451,"12":0.0028388608883773473,"13":0.23638011624823432,"14":0.23312426287618002,"15":-0.05509175804300657,"16":0.09754400660654003,"17":0.11557488773111854,"18":-0.05699361170265447,"19":0.2116667713799917,"20":0.0168392905248905,"21":-0.28785792572473196,"22":-0.09645775169401039,"23":-0.0755054375974853,"24":0.06259386161198022,"25":0.05731638701547885,"26":0.06733493781958216,"27":0.34225246340649257,"28":0.05467206705280983,"29":-0.02751736101687376,"30":0.16301998158423214,"31":0.08002310326700977,"32":0.07953144033055258,"33":0.4243102280219233,"34":0.007170986130417928,"35":-0.08828432404179226,"36":-0.07203810853356761,"37":-0.14430827786308004,"38":0.05145383454321926,"39":-0.014599228262714916,"40":0.17970324840801208,"41":0.2419271106609603,"42":0.19115395177454372}},{"sx":1,"sy":1,"depth":43,"w":{"0":-0.0006095565839365963,"1":0.047731077490037466,"2":-0.09616071238837891,"3":0.01052234555371581,"4":0.043177726490075355,"5":-0.22274802103744634,"6":-0.09433769787407681,"7":-0.11465235941519128,"8":-0.30338322729877504,"9":0.3193779274312674,"10":0.2689917418638954,"11":0.15190944873108053,"12":0.02112396296027999,"13":0.03933242708436101,"14":-0.0740317154894073,"15":0.2340443267534199,"16":-0.06072809122800268,"17":0.06894273455565493,"18":-0.00706963259209759,"19":0.08694535890428169,"20":0.09933176613743826,"21":0.16811344858840147,"22":-0.034210905078843876,"23":-0.0696144529920919,"24":0.19188510510296408,"25":-0.13134706807336113,"26":0.003693003939290351,"27":-0.09448443922835548,"28":0.035636935423894865,"29":-0.1652951966067185,"30":-0.10163240962032485,"31":0.04039927329352387,"32":-0.1320329092467482,"33":-0.015488671562440085,"34":0.08653199438846773,"35":0.03910092749808582,"36":0.13732321804100167,"37":-0.27328413796771134,"38":0.19773618074840643,"39":-0.08370060452933693,"40":-0.04319599776029285,"41":0.2099759491905141,"42":-0.23673909978440574}},{"sx":1,"sy":1,"depth":43,"w":{"0":0.1631712473242136,"1":-0.10399493959229696,"2":-0.11649173915543297,"3":-0.11634740588519932,"4":-0.04371576825673306,"5":0.012916272655591145,"6":0.00502616882528486,"7":0.15570729449227755,"8":-0.011627526665972637,"9":0.07757196040621817,"10":0.30686749542706476,"11":-0.007938510211658716,"12":0.23157158515920398,"13":-0.16998678334862086,"14":0.09980966753351973,"15":-0.07777794880013211,"16":-0.007892878894774814,"17":-0.39373341819359914,"18":-0.304745641238262,"19":0.07473471053651128,"20":0.10874525343051532,"21":-0.019892460088550362,"22":0.18994925911414712,"23":-0.05564724757068738,"24":-0.09365312712853181,"25":0.15739324018696552,"26":0.3436775466950015,"27":-0.05146930468001742,"28":-0.15442427332467396,"29":-0.18310024752358914,"30":-0.010858804114367182,"31":0.1431928191245367,"32":0.07544161717700087,"33":0.026815166986282803,"34":-0.05456631295060894,"35":-0.04051319252817411,"36":0.19902484418668104,"37":0.3547468393016305,"38":-0.134661954695851,"39":-0.08382392045287958,"40":0.09006234204855515,"41":-0.13999902816587942,"42":0.27283454579494887}},{"sx":1,"sy":1,"depth":43,"w":{"0":-0.09397603580455151,"1":-0.10207736943669644,"2":-0.1718033509569755,"3":-0.032282004503877776,"4":-0.13061068320512825,"5":0.07805983612335506,"6":-0.056942788221762755,"7":0.10440958386678631,"8":0.104376490885484,"9":0.15003113216414327,"10":0.02274651931176424,"11":-0.28745574198645657,"12":0.152738418124346,"13":0.26186079450094796,"14":0.07215935854273665,"15":0.046381404919257234,"16":0.10287395033844447,"17":0.04107779155927911,"18":0.3306670548259507,"19":-0.0131084299851389,"20":-0.011115356591664202,"21":-0.18076195228577585,"22":-0.01679434492354644,"23":-0.025824614761125363,"24":-0.16298076086439264,"25":-0.054363760567971334,"26":0.06041037265499337,"27":-0.21587551600303398,"28":0.14080044164062291,"29":0.337751906969664,"30":-0.1310811724421332,"31":0.24209734051807752,"32":-0.25864712238284737,"33":-0.13178137365070444,"34":-0.11751505264854133,"35":-0.10492253056009583,"36":-0.35439257178389777,"37":-0.14938248073128357,"38":-0.20753142889718526,"39":-0.032357337667556295,"40":-0.14471415687660805,"41":-0.19022531967375655,"42":0.19518310685611717}},{"sx":1,"sy":1,"depth":43,"w":{"0":-0.03714741130456504,"1":-0.0036788345527073003,"2":0.056203810282943294,"3":-0.17824287053619012,"4":0.029803334349864704,"5":0.2186887036788566,"6":-0.08112436591083763,"7":-0.10283382933897496,"8":-0.0875647728568134,"9":0.01336017192713488,"10":-0.010890059505977372,"11":-0.11372457448452952,"12":0.12632633438855403,"13":0.07479636993807413,"14":-0.12834021562232953,"15":-0.36523139137135746,"16":0.22413588239089238,"17":0.1591040328428611,"18":0.00460743099695525,"19":-0.07409620245989718,"20":0.04860856802584674,"21":0.11576875320088778,"22":-0.002104864177818707,"23":0.1595102585289306,"24":0.1968513831880993,"25":0.2748578824438853,"26":0.1505633844583978,"27":-0.08839594319994211,"28":-0.0146850879300579,"29":0.0584226569944674,"30":0.11689868954269693,"31":0.21184963827603448,"32":0.2433411587573736,"33":0.13704536695427508,"34":0.00540276150517788,"35":0.08234160832325431,"36":0.15714969993402955,"37":0.14759832164270784,"38":-0.14138817477970478,"39":-0.12335816334298973,"40":0.08174840757962093,"41":-0.03170297626835875,"42":-0.06830298063741916}},{"sx":1,"sy":1,"depth":43,"w":{"0":-0.14982871098800438,"1":-0.11415801155723306,"2":0.04469036141819961,"3":-0.00018790553379461467,"4":-0.1125417895788232,"5":-0.12460593622523594,"6":-0.10431638007168335,"7":-0.01151298666109574,"8":-0.11144119158502615,"9":-0.013643351403019094,"10":0.10771559816314212,"11":0.18219396044271605,"12":0.059482084308346936,"13":0.11407451338524618,"14":0.009791137849499334,"15":0.08161205337290467,"16":0.12149359725655201,"17":-0.2353065196260955,"18":-0.23227199149124392,"19":0.07843855921902312,"20":0.12283377768934227,"21":-0.12145376607939501,"22":-0.0914516765351579,"23":0.05859631233426803,"24":0.1640247223828041,"25":0.032961832813481515,"26":0.05563727188939222,"27":0.17793667711351085,"28":-0.07005780786706424,"29":-0.0007761162785850515,"30":0.10192992015485658,"31":0.04715630592656131,"32":-0.021853384763167973,"33":-0.07766765396440549,"34":-0.041297130692896145,"35":-0.22203673665802082,"36":0.24652541561594948,"37":-0.026072465510474888,"38":-0.21048899012226227,"39":0.14820300291869848,"40":0.0681148619127088,"41":0.14092115869854013,"42":0.028518183412800567}},{"sx":1,"sy":1,"depth":43,"w":{"0":0.35625336304079636,"1":-0.018093246646783842,"2":0.4436221763584807,"3":0.037668888406518414,"4":-0.014185670145138093,"5":0.07348946673242814,"6":0.1325547961003557,"7":-0.14395939459050935,"8":0.05354764428144202,"9":0.05136429782904231,"10":-0.011307322827663066,"11":0.31357626353356877,"12":0.2577167956813888,"13":0.07847050910524338,"14":0.3854184950090025,"15":0.18606464629241226,"16":0.3444692365186615,"17":0.05846149128033958,"18":-0.09977125648831216,"19":0.15936013005112215,"20":0.11309410215349242,"21":0.027866400071023704,"22":0.06026712242452364,"23":0.10932807664090909,"24":-0.18825149552973247,"25":0.033262706058382885,"26":-0.056274282969529736,"27":-0.09595043277117836,"28":0.1362616507813229,"29":0.13228458741894047,"30":0.3938398692913453,"31":0.17042943972876629,"32":0.02053192695098509,"33":-0.0869394076929462,"34":-0.03815488596955559,"35":0.03530008717489965,"36":0.0022928268187479353,"37":0.00927019412010742,"38":0.008804988868924057,"39":0.005631227015957764,"40":-0.03935007065454923,"41":0.12921711521124443,"42":0.011064239622161309}},{"sx":1,"sy":1,"depth":43,"w":{"0":0.020925810684832003,"1":-0.1723464383015059,"2":0.19116760902379884,"3":0.18762567150658344,"4":-0.13258224486104164,"5":-0.09050457056332092,"6":-0.2265207146509001,"7":-0.02920092696241378,"8":-0.044646013747293996,"9":-0.16341125162185038,"10":-0.1390040538049115,"11":0.29251535218748204,"12":-0.2419383957120999,"13":0.053516504509722736,"14":-0.10938798295710324,"15":0.09936702775742853,"16":-0.09100022140933561,"17":-0.030343256645521587,"18":-0.10986570276624652,"19":-0.2423355751354228,"20":0.26966843501360366,"21":-0.08613245353696755,"22":0.2250458030883255,"23":-0.09269786070600804,"24":0.11498725115892396,"25":0.0626091828953336,"26":-0.41635851288239667,"27":-0.10148508587979306,"28":-0.1449645683964235,"29":0.14652181546762771,"30":0.13357112330923396,"31":-0.12752173434721256,"32":-0.12762367857408097,"33":-0.05593035015603831,"34":0.016152750804564308,"35":-0.1909562337858444,"36":-0.11606713618509407,"37":-0.40820687897439495,"38":-0.06377532311807162,"39":0.190764566126059,"40":0.036688834917591076,"41":-0.05204722798486608,"42":0.0955477130884673}},{"sx":1,"sy":1,"depth":43,"w":{"0":0.10676253180393751,"1":-0.05397818749358444,"2":-0.1945182921027313,"3":0.10419238991700366,"4":0.18262347370883772,"5":-0.04543524925157237,"6":-0.0011119145830042819,"7":-0.17106497777157603,"8":-0.06126017149262931,"9":0.23368837682294358,"10":-0.03343703861155412,"11":-0.03134746016908224,"12":-0.034587998992022126,"13":-0.2603946092683217,"14":-0.012832278325111256,"15":0.03592832283342026,"16":0.005634602446990391,"17":0.007995850363407386,"18":-0.08494903245639196,"19":-0.16251214929289826,"20":0.1429415210354447,"21":-0.0638654306960707,"22":-0.029519835539504262,"23":0.03179765154341657,"24":-0.021760509564050633,"25":-0.08830471456258879,"26":-0.11530469913761981,"27":-0.09789478093738212,"28":0.12878750167573397,"29":-0.05912516964684696,"30":0.09737556798304366,"31":0.05534251458196651,"32":-0.06389785256941491,"33":0.09619227929069174,"34":-0.018817094307110704,"35":0.24017711928595553,"36":0.0988736006202975,"37":-0.04046601654840186,"38":0.01702796172738079,"39":-0.02342332183405065,"40":-0.026437001772267026,"41":-0.06389720617340108,"42":-0.02265858017145007}},{"sx":1,"sy":1,"depth":43,"w":{"0":0.021161935420573572,"1":0.1932721515261184,"2":-0.10336792789258238,"3":0.1926267556015766,"4":-0.1540173048448206,"5":-0.029513192220259846,"6":-0.14416857758548796,"7":-0.1881734979555882,"8":-0.0756175913968116,"9":0.003479644497572733,"10":0.13306244605979342,"11":-0.010866886403274965,"12":-0.1088250082682669,"13":-0.2640233456846092,"14":0.08454727142556717,"15":-0.21619992231806057,"16":0.2195673203393529,"17":0.09014598869279178,"18":0.22782461407942,"19":0.05204533750516029,"20":-0.07286023864244652,"21":-0.08154071825815583,"22":-0.018980836644666356,"23":-0.14477666212085935,"24":-0.03839290774425368,"25":-0.14761214565979316,"26":-0.026276918410578776,"27":0.13540103372860735,"28":0.0019027028403766752,"29":0.06042272683126155,"30":0.24730040097818462,"31":-0.26844329795118205,"32":-0.07480906191262321,"33":-0.0995422048307352,"34":0.055197103236706443,"35":0.01429055086474514,"36":0.12364211006651553,"37":0.03852519272083901,"38":-0.08169555127014003,"39":0.01142373659498583,"40":-0.17648309609572746,"41":-0.20819638218333933,"42":0.05007928352920738}},{"sx":1,"sy":1,"depth":43,"w":{"0":-0.23012703749504088,"1":0.0797955966228318,"2":-0.2282863794982995,"3":0.07933053126990107,"4":-0.24373371870083205,"5":0.06943960272677376,"6":-0.25832514752130664,"7":0.1389645546549713,"8":-0.2190720061412206,"9":-0.08286239672570608,"10":-0.192894036858593,"11":-0.37536575152985435,"12":-0.24951782550839616,"13":-0.0026116103520996354,"14":-0.25082710317089724,"15":0.08797385621314585,"16":-0.18486838125419305,"17":0.03974394555442566,"18":-0.18737819169317813,"19":-0.004847087884746498,"20":0.3080495777913226,"21":-0.3042982986362923,"22":0.021120318054308935,"23":-0.2456545627004831,"24":-0.07167472204688362,"25":-0.13210742779345808,"26":-0.027976347476474494,"27":-0.11632693215642184,"28":0.2982692629982716,"29":-0.2828241297574124,"30":-0.005953350988751016,"31":-0.19508536122332204,"32":0.17651552322445851,"33":0.05429370917754836,"34":0.005285027008372307,"35":-0.346030882618464,"36":0.3207607325105495,"37":0.0025835144608344915,"38":0.03790477315122504,"39":0.045704596442559066,"40":0.046742509868907496,"41":0.039789636025470615,"42":0.026080773759084862}},{"sx":1,"sy":1,"depth":43,"w":{"0":0.22865711113132586,"1":-0.08837336852226599,"2":0.010567402495882878,"3":0.07802473109798162,"4":-0.295810064696457,"5":-0.08027288847711059,"6":0.05447524384871318,"7":0.06536474418438112,"8":-0.03251653060189549,"9":-0.15288920751899188,"10":0.2625319147155881,"11":-0.19578495000243845,"12":0.1587539326742323,"13":0.0796334837178622,"14":0.024436791339957444,"15":-0.007211976868773808,"16":0.1356276624159307,"17":-0.03488855086594456,"18":-0.0999277613587896,"19":0.09106449480546193,"20":0.16728044250766846,"21":0.03260262730046903,"22":0.11631946235619896,"23":-0.0140062096730112,"24":0.5225203197989142,"25":-0.013092349818972487,"26":-0.20946047080697985,"27":0.12324649833338917,"28":0.15900417409314768,"29":-0.038396252423074366,"30":-0.08258697034092442,"31":-0.022766399542545338,"32":0.16772562362681798,"33":0.05724510048161956,"34":0.327800709881155,"35":-0.18985250412864718,"36":-0.10630705473780779,"37":0.022408768178942686,"38":-0.107087532675291,"39":0.31846713962763346,"40":0.08288099065010793,"41":0.09608162831912037,"42":-0.13609300530909132}},{"sx":1,"sy":1,"depth":43,"w":{"0":0.11132623860946571,"1":0.01221741044141149,"2":-0.0975305481559213,"3":-0.09934817877798387,"4":0.134820591589012,"5":0.04822766717292965,"6":0.13406357667846722,"7":0.01971450414840696,"8":-0.26688785720543956,"9":0.007428734887287242,"10":0.07557111393114016,"11":0.17560212398953878,"12":0.044273530599565895,"13":-0.06014146098421159,"14":0.13290856399227352,"15":-0.3473069362984112,"16":-0.031137340091307975,"17":0.00808888232317634,"18":-0.13282287234727552,"19":0.37235365937503195,"20":-0.14952966986881014,"21":0.2542748535052283,"22":-0.0014658832977344249,"23":-0.02430424194709446,"24":0.08489897477337903,"25":-0.011424937482000028,"26":0.031764090344219495,"27":-0.3320079306630384,"28":-0.010412711449275204,"29":-0.28380968969654113,"30":-0.2497550834747215,"31":-0.24974527705348007,"32":0.025263846350216636,"33":-0.31171650888041735,"34":-0.0967302309495861,"35":-0.11604137418328217,"36":0.06017395193727667,"37":0.01908147752724195,"38":-0.15393137163373458,"39":0.14989472762548764,"40":0.26932671317308016,"41":0.027931854219111457,"42":-0.13064663387283737}},{"sx":1,"sy":1,"depth":43,"w":{"0":0.07594334363248746,"1":0.12381232351653913,"2":-0.03464499690984963,"3":-0.089557232201008,"4":-0.1483892091975348,"5":-0.05281714586377319,"6":0.040192421199625065,"7":0.15780749364408117,"8":-0.12379114649273693,"9":0.17167273408382341,"10":0.18074860531290474,"11":-0.15030658768652408,"12":-0.31159003131141966,"13":-0.07276653184250505,"14":0.15210069935176596,"15":-0.012898529986266456,"16":-0.4671451776219594,"17":-0.20129784643450602,"18":0.2773115983696155,"19":0.11604149399926669,"20":-0.05273252766498375,"21":-0.012572589197161229,"22":0.0022315951634108632,"23":0.02050064048695736,"24":-0.08019234693096415,"25":0.1852454272241999,"26":0.1759865659820113,"27":-0.1505452195044295,"28":0.1452780724425835,"29":0.05719389750519792,"30":0.03876691472301736,"31":-0.1672861075657553,"32":-0.1195659829285717,"33":-0.2553208041519635,"34":0.312222809919678,"35":0.2523563636346086,"36":0.1026652295057285,"37":-0.22197274906401182,"38":0.04372635715897276,"39":0.057264563246612624,"40":0.14006566057136816,"41":0.01566375878749979,"42":-0.22593728619007492}},{"sx":1,"sy":1,"depth":43,"w":{"0":0.05891216615869,"1":0.10901053627355958,"2":0.14325069859767187,"3":0.1597957400263654,"4":0.09847747471297257,"5":0.09135090433001683,"6":-0.1413616848693195,"7":0.0283397832713074,"8":0.2754944389182687,"9":-0.2368625334177306,"10":0.23879095242618095,"11":-0.0693930513278093,"12":-0.036642186316134744,"13":0.3915286530111192,"14":0.1978569316108345,"15":0.019911459902538547,"16":0.03009996333418999,"17":0.05600457777177767,"18":0.19632622817993284,"19":-0.06224008427287994,"20":-0.11631743292443962,"21":-0.04196329576905859,"22":0.07308499639376886,"23":0.18285425442469364,"24":-0.1634131714091537,"25":-0.0024334770486267804,"26":0.07064533731019557,"27":0.024688638355324952,"28":0.035876687147817415,"29":-0.025619679655176985,"30":0.2182423028746402,"31":0.25648911281782205,"32":0.03163717664462258,"33":0.22708985869290915,"34":0.157192718530357,"35":0.039775306858592256,"36":-0.26422686556325553,"37":0.05623058009300157,"38":0.028863238272805524,"39":-0.0275984802682111,"40":0.048324088884160905,"41":0.03496349674753119,"42":0.13144810312131425}},{"sx":1,"sy":1,"depth":43,"w":{"0":-0.08888265734850272,"1":-0.06038443548424972,"2":0.21477400952931078,"3":-0.08785062193452839,"4":0.10459603683255118,"5":0.12743075908056015,"6":0.1427130853886147,"7":0.04215068439972728,"8":-0.2012259039101497,"9":0.1778559248204238,"10":0.023969089869744185,"11":0.0240556686703515,"12":-0.04894900648130982,"13":-0.3771654127791827,"14":-0.2990249347581448,"15":0.27038565603326115,"16":-0.3606671335788465,"17":0.2931584311482774,"18":0.15651952067785718,"19":-0.04530577491431471,"20":-0.13885571505517205,"21":0.12380188957919046,"22":0.2352524820964425,"23":0.07234744768439173,"24":0.3464862842254745,"25":0.21871052295685178,"26":0.1799624276466454,"27":0.009862713522815427,"28":0.19784505284085166,"29":0.11082983640246181,"30":0.1142264555052308,"31":-0.12682759716192135,"32":-0.05367383656114887,"33":-0.18891707088878243,"34":0.025015286631537872,"35":0.18856453002654738,"36":-0.052886997359929765,"37":-0.06361979456310923,"38":0.019412587700150297,"39":-0.15320648395107878,"40":0.014558675067784313,"41":-0.22168173401493305,"42":0.08246220413298773}},{"sx":1,"sy":1,"depth":43,"w":{"0":-0.15485850747329355,"1":-0.031062205852193193,"2":0.03472437358608341,"3":0.1810157148349907,"4":0.11963840572356897,"5":0.04563418736797251,"6":0.1000614767933349,"7":0.14315247077818397,"8":0.030104789008306026,"9":0.04533210864158115,"10":0.15326324777831937,"11":-0.19255772829550408,"12":0.20224026000981057,"13":-0.20228087031047004,"14":-0.02885685864934802,"15":0.09545504313789029,"16":-0.07015045616147024,"17":-0.33164142893268433,"18":0.3052628744700507,"19":-0.2485009417696718,"20":0.06244540952153023,"21":0.1632646880060156,"22":0.2681590462638724,"23":-0.08182996620538657,"24":0.2031691230532807,"25":-0.04955115461944502,"26":-0.07056225114692115,"27":0.07683049193132298,"28":0.05613116865336869,"29":0.3377523958745619,"30":-0.09180829796093715,"31":-0.19756425053379287,"32":-0.3446605094711818,"33":0.009501004727281132,"34":0.15456122047274856,"35":0.17509785831022256,"36":0.15363337852383804,"37":0.00790771457765732,"38":-0.06399189927719559,"39":-0.06846180497027461,"40":-0.2175438870625341,"41":0.1014792431036009,"42":-0.25227660402981683}},{"sx":1,"sy":1,"depth":43,"w":{"0":-0.07418014473269496,"1":0.1071020750784024,"2":-0.10369754348138012,"3":-0.10436290827593576,"4":0.22479631347616083,"5":0.06893752971275903,"6":0.061938692880280456,"7":-0.0831071570333815,"8":-0.01774862481631806,"9":0.09848858260129292,"10":0.02949325403988305,"11":-0.14172404697216817,"12":0.20026106441806324,"13":-0.12386884037296422,"14":0.3611971339437246,"15":0.03537051866086247,"16":-0.02458984879558999,"17":-0.026388155376097407,"18":0.010682540590591063,"19":0.15127883722792573,"20":-0.18515128340021114,"21":0.16321995184122803,"22":0.21932227124282283,"23":-0.17430204499658286,"24":-0.16979647307007575,"25":0.04828262439694276,"26":0.25454066269439835,"27":-0.22143068006336628,"28":0.18118538614609728,"29":-0.1622144968831911,"30":-0.19448859296331047,"31":0.17796366693370597,"32":-0.16253948003859223,"33":-0.14860188452312761,"34":0.0012031292745728523,"35":-0.15576056920982087,"36":-0.1275918757955982,"37":0.3543961367167337,"38":-0.025137335562373263,"39":-0.02454675804055123,"40":-0.013443374396742506,"41":-0.18384823226980404,"42":-0.10343926762335112}},{"sx":1,"sy":1,"depth":43,"w":{"0":-0.14204200180803106,"1":0.08898965683398746,"2":-0.06015913126686143,"3":0.5056683147298868,"4":-0.21100854360300933,"5":-0.12547911693259417,"6":0.21136892907149693,"7":-0.22365206659853107,"8":0.14765613791824828,"9":0.18468887496672415,"10":-0.1498913408062676,"11":-0.07250962275563677,"12":0.06401223432833195,"13":0.046239293824081984,"14":0.12877143047075346,"15":0.035872713625232915,"16":-0.44792965237439974,"17":-0.08852571651845316,"18":-0.1373471686575722,"19":-0.09537723621906531,"20":-0.2027042542325346,"21":0.031880948881129335,"22":-0.04754638865916641,"23":-0.23383524988191876,"24":-0.22463196915772793,"25":0.10365652896613287,"26":0.07212169125872246,"27":-0.24701129047203704,"28":0.22270515517619324,"29":0.04094523556271177,"30":-0.23408682214204013,"31":-0.025933832773966856,"32":-0.18625466368536642,"33":-0.01481359075029845,"34":-0.04526399851611219,"35":-0.11234482675515925,"36":0.14513330098402077,"37":0.11782036590659833,"38":-0.06432859095114501,"39":0.10263227966282833,"40":0.28963413484296,"41":0.16444447744491925,"42":0.17402035696670226}},{"sx":1,"sy":1,"depth":43,"w":{"0":0.030254748556465722,"1":0.06565502555993008,"2":0.18353912310316278,"3":-0.08752627480941173,"4":0.04857868139465453,"5":-0.04656216145801144,"6":0.21347970661126972,"7":-0.06745250320282692,"8":0.10693933256769597,"9":0.19319889626468723,"10":0.07876867208955347,"11":-0.06510085127783607,"12":-0.049133924761221436,"13":-0.09079989276862027,"14":0.20801790794785563,"15":0.11110679360030172,"16":0.0942196519047087,"17":0.04137491161612781,"18":0.07425331583648155,"19":0.11617465378968837,"20":0.31827477460527687,"21":-0.25189872060353596,"22":0.08819590283667901,"23":-0.15828143020151467,"24":-0.12564405913006954,"25":0.11889699829539432,"26":-0.04384027883836487,"27":0.11173258318952758,"28":0.030546585372982542,"29":-0.0715600689563631,"30":0.045230015377337306,"31":0.09102849749015766,"32":0.016129656045876073,"33":-0.12238366927795971,"34":0.05494442928421957,"35":0.27044970549456265,"36":0.16815396912265282,"37":0.07164674790257863,"38":-0.13210280948448513,"39":-0.09386747711127977,"40":-0.12984565611538357,"41":0.19092520779534106,"42":-0.00809154889965995}},{"sx":1,"sy":1,"depth":43,"w":{"0":0.2554390122196042,"1":-0.024241457769583228,"2":-0.0008240812301454691,"3":0.18228682354833148,"4":-0.22509827413012512,"5":0.13714883017612284,"6":-0.3605275752391557,"7":0.021118592050535637,"8":0.17689675937126928,"9":-0.06949226218309353,"10":0.31267938731358536,"11":-0.16497497348186346,"12":0.21531176694123882,"13":0.2889084778539357,"14":-0.15325113246758829,"15":-0.1329676065919259,"16":-0.10243042464267615,"17":0.1376372365640419,"18":-0.02176487659202365,"19":-0.0855124836978538,"20":-0.0539882655704968,"21":0.14412613208155914,"22":0.06658033207831639,"23":-0.08644145855870539,"24":-0.03524188883296501,"25":-0.07486546348450873,"26":-0.14891969833566046,"27":0.20491546797907953,"28":0.01660547020975984,"29":-0.12664901651223615,"30":0.17764698458774167,"31":-0.09339651732684473,"32":0.05643402145059804,"33":0.11279859464804934,"34":-0.1469609700678042,"35":-0.0805663838589582,"36":0.16708154728969993,"37":-0.006476503294653119,"38":-0.18721097710112514,"39":0.20550371301764597,"40":-0.18670683781629302,"41":0.09208276200022805,"42":0.14249220852665295}},{"sx":1,"sy":1,"depth":43,"w":{"0":-0.04603466383171627,"1":-0.03856980654588187,"2":-0.016986945139593288,"3":-0.21435372237286476,"4":0.0727718152861125,"5":-0.05446594970570382,"6":0.3394875774026762,"7":-0.11337832780785027,"8":-0.08466757461840131,"9":0.058802318838766465,"10":0.0050531918113739475,"11":-0.148323900043394,"12":-0.12060141060317234,"13":-0.0907765069116832,"14":-0.03794277486772378,"15":0.1319749837369565,"16":-0.17883684440777647,"17":0.015625632307438107,"18":0.2144789785233151,"19":-0.2166030155889934,"20":0.0798950942234208,"21":0.2146926991816867,"22":0.27792471540360564,"23":-0.11856568076814297,"24":-0.185301562196723,"25":0.1661479154691017,"26":-0.15218183435927768,"27":0.1394839618747859,"28":-0.24070538909630576,"29":0.13107455848852098,"30":-0.07061795208602356,"31":0.07114922115688392,"32":-0.1305671425049596,"33":0.16208497148576034,"34":-0.18849581690669157,"35":0.21832871085587446,"36":0.062383426553998214,"37":-0.0645086719005166,"38":-0.05588378498801276,"39":-0.2021229287939611,"40":-0.02989608021944908,"41":-0.08599599017595902,"42":0.10375112796238022}},{"sx":1,"sy":1,"depth":43,"w":{"0":0.2781820190104046,"1":0.12922637411701443,"2":0.20974914160934713,"3":-0.1405063311899693,"4":-0.0516305914186232,"5":0.0020368101223903357,"6":0.25205638214985787,"7":-0.13401317044520394,"8":0.16457206087896595,"9":-0.08584703094840684,"10":-0.0021042806373180495,"11":0.004527280033189972,"12":-0.008330318944091007,"13":0.045004330624436546,"14":0.014881995580386926,"15":0.12638084286498674,"16":-0.05414695289332917,"17":0.0915028421199684,"18":-0.20659074689625062,"19":0.10971823291197534,"20":-0.1355825783999172,"21":0.21546387563338223,"22":0.027424688572976856,"23":0.07573093180931321,"24":0.16930263765563375,"25":0.09841938068915039,"26":-0.2347244355652347,"27":-0.0730158960647577,"28":0.1841153164402289,"29":-0.033438513387267214,"30":0.05223644492903712,"31":-0.10839771388648842,"32":0.15919230265998177,"33":-0.017392616728287423,"34":0.17770245106981006,"35":0.008389938337544556,"36":0.0976718469068851,"37":0.0397196056013572,"38":0.17977239823092173,"39":-0.16350778338607225,"40":-0.11073130589987551,"41":0.07174378871260693,"42":-0.3365920926295853}},{"sx":1,"sy":1,"depth":43,"w":{"0":-0.06140384335116035,"1":0.13742789795903912,"2":-0.14547382901810116,"3":-0.008409307783188671,"4":-0.01294268799017809,"5":0.18145368346208618,"6":0.05986496663911798,"7":-0.03032691123465467,"8":-0.19021246569518271,"9":0.03284984196219704,"10":-0.023769529214968804,"11":-0.15187828828539496,"12":0.12784659368745835,"13":-0.014969886023710641,"14":-0.17501157832321362,"15":-0.2180191410639989,"16":0.26817893937098825,"17":0.09324197095299233,"18":-0.05974020759108038,"19":0.047783449246128304,"20":0.10435680830560427,"21":0.13347539573560277,"22":-0.29374878126982634,"23":0.06474699379718113,"24":-0.21574636598627034,"25":-0.02329352038326216,"26":0.08749340717721453,"27":-0.10907351526651735,"28":0.15078580175550726,"29":0.05397062542967185,"30":-0.012676120715533213,"31":0.4899629810807561,"32":-0.0999459914799018,"33":0.13567066683573778,"34":0.12584418488988475,"35":0.3614715941940633,"36":0.26645799141367227,"37":-0.005229376146156021,"38":0.14337249655703885,"39":0.17100307435257978,"40":0.06232748181364488,"41":-0.08032376218584249,"42":0.08537194101852286}},{"sx":1,"sy":1,"depth":43,"w":{"0":-0.2523075112091106,"1":-0.07634443640304912,"2":0.12147618683601004,"3":0.019371947498013103,"4":-0.08854044354866088,"5":0.23530007808374054,"6":0.11274244078014652,"7":-0.07589692896502248,"8":-0.10537069612310265,"9":0.040020938244812815,"10":0.23526647904239079,"11":-0.04352488250504387,"12":0.08162521629965075,"13":0.1551836805570379,"14":-0.008071462375112073,"15":0.15699412721137634,"16":0.21670315552232694,"17":-0.02483483999556793,"18":-0.009087501165487188,"19":-0.2281948200149233,"20":-0.023656057823531446,"21":-0.05679507797005608,"22":0.10662016435630156,"23":0.28487657662732446,"24":-0.1281926474951106,"25":0.2544023481568041,"26":-0.017498283570977467,"27":0.23508482790610832,"28":0.15729341366091384,"29":-0.2906512536447679,"30":-0.10352243308096987,"31":0.06397445894373838,"32":-0.0648920075206363,"33":0.17981947455408734,"34":0.15541562351816093,"35":0.318553976027557,"36":-0.029069765052340317,"37":-0.07020923957840995,"38":0.22858332958686967,"39":0.1123377764172638,"40":0.005920500479700534,"41":0.21900760292846277,"42":0.20792786934528312}},{"sx":1,"sy":1,"depth":43,"w":{"0":0.21220350686675765,"1":0.017214339111253616,"2":0.1563945271011968,"3":0.06464118531455829,"4":0.002847235283960082,"5":0.3054481117553264,"6":0.060585366936697214,"7":0.07487962743894906,"8":0.04079005484356214,"9":-0.25557384099453434,"10":-0.09778583059386745,"11":0.11858899830224007,"12":-0.010329062941680007,"13":0.09052203649667674,"14":0.023095327772564397,"15":-0.04817500313287293,"16":-0.027101908525495086,"17":-0.04698524310429678,"18":0.3237422259892239,"19":0.12481196716800116,"20":0.14664449261317494,"21":0.20537212676410624,"22":-0.15462469619791172,"23":0.006961273832178913,"24":0.10312871362235652,"25":-0.20014357356955637,"26":-0.12933237687056948,"27":0.09964265765380347,"28":0.3134558652300931,"29":0.08127655935474887,"30":-0.3101007649556518,"31":-0.15643273465500615,"32":0.07571228885548831,"33":0.051085002834278206,"34":0.16156569599838622,"35":-0.0517425149651873,"36":-0.15362308590127063,"37":-0.1995661457947061,"38":-0.3273224862886444,"39":-0.16766117155590313,"40":0.2529513433765778,"41":-0.024200298899057875,"42":-0.1944168014677465}},{"sx":1,"sy":1,"depth":43,"w":{"0":0.09591288441213491,"1":0.14399371604586222,"2":-0.19689807314536964,"3":-0.08243362881831426,"4":-0.07866797354524228,"5":0.1818462156595333,"6":-0.06390734834665063,"7":0.08784275566602949,"8":-0.015519405419140368,"9":0.05572724196848377,"10":0.00020729126248003995,"11":-0.1370408058695954,"12":0.16940687344372213,"13":0.2115829193174327,"14":0.13182016782112121,"15":-0.1479164217539672,"16":-0.1767348325499714,"17":0.1865898637793532,"18":-0.05064514609702819,"19":0.026015223396765624,"20":-0.27294858353178786,"21":0.004581486224368916,"22":-0.06709404283827133,"23":-0.12217097988702105,"24":-0.06495032559900206,"25":0.0217283447577769,"26":-0.1442548449082123,"27":-0.14142249422076686,"28":0.16706978364682876,"29":0.043585563668806504,"30":0.07475183632181279,"31":0.19329408971268253,"32":-0.041185423457088255,"33":-0.09276728212023154,"34":0.2063534349060937,"35":0.09352979180467727,"36":0.21617774682885632,"37":-0.2692138549856333,"38":-0.17151012810842153,"39":0.2530919085578223,"40":0.06029217397832593,"41":-0.16508256253088416,"42":-0.32915880043883533}},{"sx":1,"sy":1,"depth":43,"w":{"0":0.22216574079194576,"1":0.09786949490135102,"2":0.05651617273267499,"3":-0.21296277508100772,"4":0.19558283913981,"5":0.0883109363214408,"6":0.08500008320405711,"7":-0.044657924872252584,"8":-0.19043395185600753,"9":-0.08209307464008435,"10":-0.007233825925640348,"11":0.007424457610662237,"12":0.1013148439782891,"13":0.10117811267254272,"14":-0.13466772441962763,"15":-0.1827695207243411,"16":0.07485069389838435,"17":0.07877087406237153,"18":0.005912346320396424,"19":-0.045198516579264054,"20":-0.02967581557002757,"21":0.04792232350316898,"22":-0.23315536178832993,"23":-0.017022613082554303,"24":0.06310236390959587,"25":-0.10681798668863209,"26":-0.18719449780960487,"27":0.0020107236421254863,"28":0.05125806296281249,"29":-0.3176443977903742,"30":0.26348424217354166,"31":0.008426196929306575,"32":-0.2266191572891306,"33":0.007963263196143742,"34":-0.03279241163195334,"35":0.2750457724419675,"36":0.24194376248747623,"37":0.21063864230741905,"38":0.08036960192265952,"39":-0.034903405650070864,"40":-0.0023804370362656064,"41":-0.05948333420864239,"42":-0.10950763953288452}}],"biases":{"sx":1,"sy":1,"depth":30,"w":{"0":0.10239408474179094,"1":0.09989080309748863,"2":0.10063838302198802,"3":0.10044213235073601,"4":0.09769630442078893,"5":0.0986524278498908,"6":0.10161277753615801,"7":0.09496778766907314,"8":0.10757932596667485,"9":0.09743092216623331,"10":0.09211351472763098,"11":0.09696728875682202,"12":0.1067754127185312,"13":0.10289267343429635,"14":0.10312288774362291,"15":0.10280535757978446,"16":0.10646102425161028,"17":0.10158562224610497,"18":0.09212369642040863,"19":0.09217764191392659,"20":0.09434074875502683,"21":0.10168348271305461,"22":0.09524086257509914,"23":0.09900278308279738,"24":0.1063641855897723,"25":0.10122601999616755,"26":0.09212686257232722,"27":0.09819557680948299,"28":0.10253740796166896,"29":0.10139048568641723}}},{"out_depth":30,"out_sx":1,"out_sy":1,"layer_type":"relu"},{"out_depth":5,"out_sx":1,"out_sy":1,"layer_type":"fc","num_inputs":30,"l1_decay_mul":0,"l2_decay_mul":1,"filters":[{"sx":1,"sy":1,"depth":30,"w":{"0":0.3470901870926851,"1":-0.08265552386284171,"2":0.12792098792454143,"3":0.0325783435659504,"4":0.24945851261608823,"5":-0.24209435829316572,"6":-0.11859976984187323,"7":-0.44458477374435096,"8":0.3654891849794596,"9":0.01220625157279704,"10":-0.2131354415271086,"11":0.23339573104787917,"12":-0.4126366021011864,"13":0.3517692723309269,"14":0.15579482569192526,"15":-0.06675713308279134,"16":0.12860358857514234,"17":-0.03801587636727837,"18":-0.21538355566674697,"19":0.18302484608172406,"20":-0.15462621900923393,"21":0.11803408412087593,"22":0.0029361635110771167,"23":0.07987563822839241,"24":0.17660943938097284,"25":0.1271361298467439,"26":0.06305452843633719,"27":0.16267001473930753,"28":-0.03594022817954193,"29":-0.07116996155253143}},{"sx":1,"sy":1,"depth":30,"w":{"0":-0.0836811842153243,"1":0.20682850224581997,"2":0.18146145891250437,"3":-0.03627900550152988,"4":0.22013382855555216,"5":-0.02467798418646782,"6":-0.06640189943401607,"7":0.050585785374448106,"8":0.2486982809775208,"9":0.0047370158514254785,"10":0.09135398181801208,"11":0.19321024502681,"12":-0.4165140742339914,"13":0.09930534291778025,"14":0.08545711883512466,"15":0.19858731773505464,"16":0.29288108553958847,"17":-0.17394453108347158,"18":-0.10170276385608852,"19":-0.2624793938936743,"20":-0.17107363089581015,"21":0.05493889909755145,"22":-0.11359709416528742,"23":-0.09933477682475572,"24":0.16529132881972905,"25":0.12987251227648922,"26":-0.047474607350745414,"27":0.012376080282532826,"28":0.12512811024166157,"29":0.3408886265541729}},{"sx":1,"sy":1,"depth":30,"w":{"0":0.28122221225548893,"1":-0.09096915187869255,"2":0.08240541014035628,"3":0.12496595063629325,"4":0.37076143539323936,"5":-0.14737606590597652,"6":-0.2906231345468126,"7":-0.2582814238588304,"8":0.45783858642244735,"9":0.033437648576908965,"10":0.01734849085831433,"11":-0.05321193520495362,"12":-0.3202753958763983,"13":0.2794847283228862,"14":0.1879595149957937,"15":-0.22972195023124772,"16":0.19718608538677262,"17":0.0374660420457562,"18":-0.28028659808525663,"19":0.056339927345033354,"20":-0.21995564247534283,"21":0.14734288888923047,"22":0.05180275990966162,"23":-0.03617885483721881,"24":0.25809780157477535,"25":0.040233737864011264,"26":-0.1494286749587945,"27":0.2791780709100475,"28":0.10519447838364378,"29":0.13272608970856428}},{"sx":1,"sy":1,"depth":30,"w":{"0":-0.2355154361561247,"1":0.1353790758612123,"2":0.21856464105866577,"3":0.03378600794467783,"4":0.08977889409371705,"5":-0.18853573753412414,"6":-0.3825139152256112,"7":-0.12244694069425249,"8":0.31941597010211376,"9":-0.053772382505950296,"10":-0.11201107272253365,"11":-0.23497596792371933,"12":-0.4692778796898143,"13":-0.08637000557111293,"14":0.3969434492886058,"15":0.06881166416203621,"16":0.1535258297719916,"17":0.03690281397240999,"18":-0.2094294548215504,"19":-0.05193719850223597,"20":-0.12518227120507394,"21":-0.014940393587865173,"22":0.4259074670675328,"23":0.028802495119357625,"24":0.3114757732835384,"25":0.04193416794867723,"26":-0.0930297694911281,"27":0.2013486187416896,"28":0.06789337079543593,"29":0.03391310024000007}},{"sx":1,"sy":1,"depth":30,"w":{"0":-0.03484260757412827,"1":-0.021213591052008852,"2":-0.13022492432092395,"3":-0.12136108529943766,"4":-0.13673437481610398,"5":0.3599031309837292,"6":0.14878163725659355,"7":0.22820971793237518,"8":0.2667525267461896,"9":-0.1983221167052769,"10":-0.16281946705494096,"11":0.21651692892141092,"12":-0.35011044237992267,"13":-0.07799947912238056,"14":0.20947043487809414,"15":-0.1745612655117275,"16":0.03137535248775815,"17":0.10993629484307883,"18":0.004534653888253174,"19":0.03929551320850899,"20":-0.18397879855910831,"21":0.21402957222242217,"22":-0.03485176440454271,"23":-0.1623565900372927,"24":0.045420295675898364,"25":0.36107218317419243,"26":0.31572599535238455,"27":0.33522994855872984,"28":0.09760266793176942,"29":-0.0690059913765245}}],"biases":{"sx":1,"sy":1,"depth":5,"w":{"0":-0.004183032446451559,"1":0.018975727222081015,"2":0.020733347372138007,"3":0.029643962400716414,"4":0.009746799227579024}}},{"out_depth":5,"out_sx":1,"out_sy":1,"layer_type":"regression","num_inputs":5}]}