{"layers":[{"out_depth":43,"out_sx":1,"out_sy":1,"layer_type":"input"},{"out_depth":50,"out_sx":1,"out_sy":1,"layer_type":"fc","num_inputs":43,"l1_decay_mul":0,"l2_decay_mul":1,"filters":[{"sx":1,"sy":1,"depth":43,"w":{"0":-0.06814802325935425,"1":-0.06645121886119855,"2":-0.35818830439836913,"3":0.0008820852071786476,"4":-0.19802747738251875,"5":0.31566316211753115,"6":-0.16004400457127718,"7":0.3474872526205427,"8":0.09456818053868059,"9":0.3304469598388447,"10":0.10141594885382185,"11":0.25387031190313153,"12":0.25193682089784475,"13":0.20856852438927073,"14":-0.10628854924695189,"15":0.0918886678643461,"16":0.1919195858378759,"17":-0.004509334141650354,"18":-0.08546784218322759,"19":-0.2555969514162555,"20":0.014024005048208301,"21":-0.27073273601343184,"22":-0.00948240308046928,"23":-0.23943980643048007,"24":0.2172599583259537,"25":-0.34056867433456517,"26":0.206680045126237,"27":-0.130384014186406,"28":0.016868766553756392,"29":0.11816790292425675,"30":0.10503439900522925,"31":0.22647622152639732,"32":-0.1577225311037609,"33":0.12892079396800193,"34":0.1975831900550703,"35":0.1782957422645904,"36":-0.05369189896288656,"37":0.6277609851638666,"38":-0.0688985905875266,"39":-0.06686498623182499,"40":-0.07892707923297665,"41":-0.047724527993159564,"42":-0.053066380108724734}},{"sx":1,"sy":1,"depth":43,"w":{"0":-0.18691831949301582,"1":0.08586398651469376,"2":-0.015657206132195362,"3":0.25956224035571335,"4":-0.0937109823038737,"5":0.12436097841430259,"6":-0.06261236598194259,"7":0.05099038788545246,"8":0.10936658984637776,"9":-0.05504461886036048,"10":0.18628200114825966,"11":-0.05644178236562023,"12":0.13564146936396584,"13":-0.1669954089226982,"14":-0.1375002663640844,"15":-0.0688230460008245,"16":0.15637922752023972,"17":-0.12428701938776981,"18":-0.2433032418150811,"19":-0.27807225085182447,"20":-0.05891295351103363,"21":-0.1459703806597152,"22":0.0921506215857451,"23":-0.08551120037901029,"24":0.09117440098531056,"25":-0.09033805332602189,"26":0.04396786462491522,"27":0.044710383864300124,"28":-0.13799577989966244,"29":-0.10088319139251484,"30":-0.2319727844232051,"31":0.22623328954535063,"32":-0.21132385509307844,"33":0.12228704666963047,"34":-0.3325656538757595,"35":0.10147404589689983,"36":-0.18435053156723624,"37":0.5525215473820216,"38":-0.07275205438906131,"39":0.21002764576555938,"40":-0.06300325340140166,"41":-0.04646998038412942,"42":-0.1663365208672538}},{"sx":1,"sy":1,"depth":43,"w":{"0":0.045485053769831016,"1":0.01874389136854283,"2":-0.20601267782651014,"3":-0.10283856576517898,"4":-0.14002941836280872,"5":-0.07369203256494103,"6":-0.04037148082073056,"7":-0.23510185382799598,"8":-0.29679643588002286,"9":-0.20022755915201573,"10":-0.06781272829193452,"11":-0.26108583226660714,"12":0.15650995396528244,"13":-0.08300006463812565,"14":0.14082423003990333,"15":-0.367447439698841,"16":0.6409199358288025,"17":-0.2125007948363004,"18":-0.2136951740141559,"19":-0.09004253031685558,"20":0.0005317550862619593,"21":-0.150063637501096,"22":-0.09517595822235411,"23":-0.22064622731847133,"24":0.06577498438868858,"25":-0.18449239475732224,"26":-0.1325273153079816,"27":0.03996130300510018,"28":-0.020978783729278812,"29":0.22376247218709663,"30":-0.03665905453292781,"31":0.24889358229757452,"32":-0.14379610831415957,"33":0.2683898624107489,"34":-0.11818880503074021,"35":0.31114504533266507,"36":-0.12831340913342024,"37":0.03747082581271329,"38":-0.08303274081185472,"39":-0.0679934067078489,"40":-0.07681705243788753,"41":-0.060440046853280964,"42":-0.07247919154887174}},{"sx":1,"sy":1,"depth":43,"w":{"0":-0.16658276826935792,"1":-0.21371018267105663,"2":0.030315513261944926,"3":-0.10080338992035703,"4":-0.050775700920742385,"5":-0.05022893483062213,"6":0.06939655704641683,"7":0.11149385736635288,"8":0.06640233390580133,"9":-0.01467719608092314,"10":-0.09237227523071845,"11":-0.20383611321679151,"12":-0.11308440656229198,"13":-0.03625609847863152,"14":-0.28038354216485195,"15":-0.10596798325048119,"16":-0.12335285330394234,"17":0.1109515194188638,"18":-0.33048707158527196,"19":0.17477304792196544,"20":-0.02112210651315376,"21":0.2233008416531132,"22":0.2281258750662751,"23":0.27635964301965876,"24":0.27470876680159745,"25":0.07085672032572053,"26":0.09955019843887224,"27":-0.15193166398012717,"28":0.1400565532654936,"29":-0.2839094816615806,"30":0.0820499040582213,"31":-0.38497205465830087,"32":-0.05176926402938705,"33":-0.22243593810136886,"34":-0.048030710804805817,"35":0.46686483996303263,"36":0.16310446793841385,"37":0.6073056775895513,"38":-0.1248613622023823,"39":-0.05150430309033833,"40":0.06639121683388946,"41":0.04488177037789835,"42":-0.12437364087753078}},{"sx":1,"sy":1,"depth":43,"w":{"0":0.0866540656921417,"1":0.08610990284829384,"2":0.2670637576918707,"3":0.127870334152101,"4":0.125703135006887,"5":0.05663700108754079,"6":-0.15864160310374037,"7":0.15275412199915198,"8":-0.5126468413254192,"9":-0.20426801075589177,"10":-0.8486035267724779,"11":-0.10143762439707517,"12":-0.5308733206522381,"13":-0.08527763095490025,"14":-0.3645698125089765,"15":-0.1417486766322109,"16":0.6127964980874051,"17":0.35449897210355785,"18":0.9542737147560635,"19":0.21684348637537593,"20":0.296755879959066,"21":0.1514165469202842,"22":0.22561674310036733,"23":0.27454501921873,"24":0.17861263780768522,"25":-0.05693789980925625,"26":0.15238758255935655,"27":0.0667579686978932,"28":0.1716320472594045,"29":-0.33454720546841926,"30":-0.21900709191416481,"31":-0.2932445968190196,"32":-0.20579921730336398,"33":-0.11448190432816732,"34":-0.24896204116726273,"35":0.4184171611291145,"36":0.4310765796534956,"37":1.1421845677537819,"38":0.06658028155704053,"39":0.02652571688943957,"40":-0.1836807813916459,"41":0.13934287661902514,"42":0.12168506947991438}},{"sx":1,"sy":1,"depth":43,"w":{"0":-0.08581720067950087,"1":0.3074931618612373,"2":-0.053712494061882304,"3":0.33466178401981406,"4":0.3569129876462659,"5":0.23609522881561926,"6":0.41300030609717775,"7":0.41686994966981655,"8":0.30678828827472215,"9":0.43202054344929564,"10":-0.045424565539381394,"11":0.011499471604527654,"12":-0.20242971378786945,"13":0.0019561273242256327,"14":-0.48738206896337866,"15":-0.05671658839079485,"16":-0.07230608424222387,"17":0.22305331827168587,"18":0.7790671211172298,"19":-0.29537120741605877,"20":0.2946823025354437,"21":-0.36470037791748317,"22":-0.06626455035232977,"23":-0.014855055527090268,"24":-0.04910007345389916,"25":0.10548883722937041,"26":-0.06569646262749537,"27":-0.02704021348292012,"28":-0.22573863899558802,"29":0.17844811050144022,"30":-0.24918831847820982,"31":0.1647471165705521,"32":-0.38592867899657374,"33":0.20229138902574165,"34":-0.018625744534513988,"35":0.42970254401876873,"36":0.24446187259147212,"37":0.7329439246097461,"38":-0.09263632022655403,"39":-0.0159177674789898,"40":0.05188909722528263,"41":-0.2179992148080619,"42":0.10559166899188122}},{"sx":1,"sy":1,"depth":43,"w":{"0":0.20312445767193035,"1":-0.17782875907891277,"2":-0.1149160287907403,"3":-0.005354533248344649,"4":0.19870832025357657,"5":-0.009970173617796695,"6":-0.13971170914371267,"7":-0.06832493409339688,"8":0.04243215733013369,"9":-0.09192697366130623,"10":0.13183518873135283,"11":-0.0274673684086551,"12":0.1048969372271796,"13":-0.04315360814376276,"14":0.19916540087003085,"15":0.1970398295648778,"16":0.1250900582048005,"17":0.2868975322283681,"18":-0.5751234808442361,"19":-0.11662935979025954,"20":0.02632164776699029,"21":0.013892776782135935,"22":0.12240218016832484,"23":0.03963089252240838,"24":0.1544005179688243,"25":0.004989073659824006,"26":0.1824211456772449,"27":-0.13579635509712876,"28":0.004821499577831818,"29":-0.13609299946245237,"30":0.06540192125748141,"31":0.1293736378382066,"32":0.08536016532795862,"33":0.06729547853550324,"34":0.03656249514166841,"35":0.14319287859233656,"36":0.07099726282745066,"37":0.6470920127099422,"38":-0.1221615604859626,"39":0.064147080755474,"40":-0.09856226506558635,"41":-0.10383318224058921,"42":-0.18885757221115332}},{"sx":1,"sy":1,"depth":43,"w":{"0":-0.22853475919756464,"1":0.15599652703840133,"2":-0.27999978133890907,"3":0.11135100396451791,"4":-0.11062457256213953,"5":-0.07786895311635267,"6":-0.11401995665234638,"7":-0.24008134046238164,"8":0.13376568108438006,"9":-0.21216008013740437,"10":0.5378004434594866,"11":-0.1066751240924177,"12":0.3626473184585119,"13":-0.08852827315612688,"14":0.459610518628927,"15":-0.1509133331785743,"16":-0.02613848645677057,"17":0.16660849349140117,"18":0.3389214856077949,"19":-0.12455705558635773,"20":-0.014248264499169331,"21":-0.06695039408870201,"22":0.2618359347292927,"23":-0.011693467427385425,"24":0.4625326839986765,"25":-0.010365596267265303,"26":0.21298059861978147,"27":0.018964572886020905,"28":0.09031007508886849,"29":0.25812934230803236,"30":0.3344394843553844,"31":0.15261019443344437,"32":0.2995797775992033,"33":0.117458577077389,"34":0.37210880642875066,"35":-0.09039321148265332,"36":0.23771209006127647,"37":0.49091099884808737,"38":-0.011017316380730086,"39":-0.21481266089799303,"40":-0.162883665492759,"41":-0.07045694873959261,"42":-0.20820156419446165}},{"sx":1,"sy":1,"depth":43,"w":{"0":-0.06715750151920608,"1":-0.05853661680489517,"2":-0.1587922301830201,"3":0.14271036065712225,"4":-0.3606796016000917,"5":0.324600697132334,"6":-0.25193321129020463,"7":0.09628515081594631,"8":-0.15732476042927745,"9":0.07597010965973724,"10":0.15567631501952142,"11":-0.23672143621732825,"12":0.19778760556898106,"13":0.04604542928755783,"14":0.11230788304200338,"15":-0.0182881557086044,"16":0.14171538160179678,"17":-0.10712409456316094,"18":-0.5308662619396968,"19":-0.31289813364062624,"20":0.1563100612995823,"21":-0.1653225924573444,"22":0.011271518721005968,"23":0.1954540469448647,"24":-0.12445687919278686,"25":-0.16909207097986653,"26":-0.17988924746390816,"27":-0.31778951946464995,"28":-0.26712205796883454,"29":-0.11319607073799684,"30":-0.05402013899338235,"31":0.10972169657846031,"32":0.03898747808251279,"33":0.06844749512133236,"34":-0.05790451041398266,"35":0.014847172811338518,"36":0.1175417928267233,"37":0.30939493420570385,"38":0.19904411514616616,"39":-0.00196368461101797,"40":-0.2756622251399092,"41":-0.08813259010131817,"42":0.3363932984297077}},{"sx":1,"sy":1,"depth":43,"w":{"0":0.08726370832518877,"1":0.21533383115299967,"2":0.2004412906853047,"3":0.02109785435514784,"4":0.056424252390223695,"5":-0.013007183678486443,"6":-0.028482861793486015,"7":0.20176732390640054,"8":0.08758245300633394,"9":0.2787118151979239,"10":-0.23121340372717233,"11":0.3235122446463169,"12":-0.023742707159036546,"13":0.2964065919456576,"14":-0.11436420421869921,"15":-0.22165068670732985,"16":-0.6430358891470942,"17":-0.09753514072186284,"18":0.22121104089413424,"19":0.2550115672509901,"20":0.2831722188449571,"21":-0.13539278661693777,"22":-0.006571990833447159,"23":-0.09845867232366484,"24":-0.057017583572945736,"25":-0.25683887256018156,"26":0.08220555342823754,"27":-0.16115473328818325,"28":0.07081467327479089,"29":-0.1049512792030257,"30":0.10548607962352492,"31":-0.19979385335692298,"32":0.3039481024265013,"33":-0.10639548668036733,"34":0.06184527690766604,"35":-0.2665768884512265,"36":0.11604391906195481,"37":0.3519330380704874,"38":-0.20605379759118048,"39":0.059822247036172005,"40":-0.15239164321422602,"41":-0.044156138006757564,"42":0.07137643917921446}},{"sx":1,"sy":1,"depth":43,"w":{"0":-0.29259048778853447,"1":-0.1422245452925561,"2":-0.30341053369651527,"3":-0.179292437803139,"4":-0.10149832428082686,"5":-0.050935552226127424,"6":-0.1835129430593272,"7":-0.07608000452994701,"8":-0.18353059144429323,"9":0.026286864132349423,"10":-0.15528654857258217,"11":-0.058903799830537625,"12":0.35761769828946727,"13":-0.07626849140056759,"14":0.4435765586360229,"15":0.14469019029457336,"16":0.6468562259895304,"17":0.35078822945409155,"18":0.03650605527126447,"19":-0.036977577410688724,"20":0.012640484431783878,"21":-0.22080214016669655,"22":0.08722248074690266,"23":0.04464919122116841,"24":-0.038322477127808036,"25":0.1719158908490766,"26":-0.23332903361133647,"27":-0.028047773656623493,"28":-0.05347001637718815,"29":0.15185836869228028,"30":0.0636841030426578,"31":0.267677180382368,"32":0.20051055307772536,"33":0.3266961631794772,"34":0.34160537500507604,"35":0.05449197180721494,"36":0.13843859002523765,"37":-0.4667072445264538,"38":-0.11760412825359084,"39":-0.11494545728173977,"40":-0.2207965228648377,"41":-0.017684816228509672,"42":-0.10938977737779297}},{"sx":1,"sy":1,"depth":43,"w":{"0":0.1918420384610418,"1":-0.1776265654875075,"2":-0.01346771511669805,"3":-0.05870286739411988,"4":-0.2819004211488246,"5":-0.14636735612838095,"6":-0.03707748357493081,"7":-0.29366928034904644,"8":0.039472986072006735,"9":-0.11358115442434628,"10":0.17990044805188268,"11":-0.20106340921008437,"12":0.2914215182698538,"13":-0.1099534412396008,"14":0.5672779357064569,"15":0.05940582707993096,"16":-0.017008902373102822,"17":-0.1898283268468059,"18":0.23002576706511482,"19":0.22174715909284004,"20":-0.24484465280416237,"21":0.11089103922364874,"22":-0.017026745149833038,"23":-0.068471506122203,"24":0.06981593249286346,"25":0.046368730084264044,"26":0.26457845971433336,"27":0.15984636202916028,"28":0.25621844416703965,"29":0.20133080782704496,"30":0.25657772799749545,"31":0.3535423060337614,"32":0.10588986424439539,"33":0.021304228457950998,"34":0.007789873072541402,"35":-0.221031508715473,"36":0.013694755641130544,"37":-0.90033356028314,"38":-0.1328469809121295,"39":-0.10147557738014142,"40":-0.1347304438791316,"41":-0.12431044180882328,"42":0.08080660719858487}},{"sx":1,"sy":1,"depth":43,"w":{"0":-0.05358919635863506,"1":-0.0943798719492453,"2":-0.1197252263136801,"3":-0.03540445294520958,"4":-0.21090780272308526,"5":0.12220469900535359,"6":-0.43160121823692765,"7":-0.1409706562792364,"8":-0.26947940184899105,"9":0.06605798290613957,"10":-0.07611248262364953,"11":0.06650698714175365,"12":0.3853281670561774,"13":-0.0018942508688814589,"14":0.2738184643820566,"15":-0.08280403057306704,"16":0.6835447976445208,"17":0.17985869131493176,"18":-0.6048306470153363,"19":-0.01220139311645105,"20":0.08861413447408606,"21":-0.06280727631354521,"22":0.17734309059835013,"23":-0.030840594695863473,"24":0.023976428984694004,"25":-0.1849052851080746,"26":0.09907522779910201,"27":-0.2838273264743297,"28":0.08114888450003113,"29":0.06623534343617161,"30":0.07543121475046236,"31":0.13189013731783836,"32":-0.060385195414784334,"33":0.08446216980753571,"34":0.06860539328979812,"35":0.29562875229715546,"36":0.27942856186197407,"37":-0.668135673954053,"38":0.010407851611434092,"39":-0.01692617662332475,"40":-0.2141677326049605,"41":-0.016585808774152968,"42":-0.16124487564953366}},{"sx":1,"sy":1,"depth":43,"w":{"0":-0.2094307774664521,"1":-0.41998307165626203,"2":-0.23294182777144878,"3":-0.35198833344516733,"4":-0.07864823937671579,"5":-0.30634475883406387,"6":-0.2601009339595934,"7":-0.299208063035961,"8":-0.1712034489461748,"9":0.08487683569140575,"10":-0.18903373437238147,"11":0.1774227161881232,"12":-0.31318503383630847,"13":0.05808654983485116,"14":-0.18570638405884587,"15":0.14748307839476704,"16":-0.16427533195583344,"17":0.40002515604890315,"18":0.3160408246402735,"19":-0.23757361331983945,"20":-0.5273231183918942,"21":0.12659184587513075,"22":-0.4445048029201836,"23":0.00044100859200595625,"24":-0.369952143135485,"25":0.03991341055834128,"26":-0.25863033596892615,"27":-0.05137457311371781,"28":-0.31317560153325813,"29":-0.20143318652242717,"30":-0.1238339649987682,"31":-0.07330637360931772,"32":0.008164726200296612,"33":-0.016406200953737328,"34":0.06338040395440851,"35":-0.07376843953882017,"36":0.3296648557430233,"37":-0.15754176865662406,"38":0.16128158592253977,"39":0.15598958890302056,"40":-0.0722021571532907,"41":0.2647541353163934,"42":-0.03114599825080059}},{"sx":1,"sy":1,"depth":43,"w":{"0":-0.3032032314603234,"1":-0.20458876474288967,"2":0.03934234922479186,"3":0.002321927614176563,"4":0.1688109607076583,"5":0.01536605790836682,"6":0.42108294860863116,"7":0.08448784167153134,"8":0.24007818770941253,"9":-0.1292478949852933,"10":0.2630262616788395,"11":0.24615521577309618,"12":-0.1616578486645908,"13":0.00028560993849862884,"14":-0.03146940358993516,"15":0.06262241221613228,"16":0.12149295778897341,"17":-0.07294591975711054,"18":0.6273897942440402,"19":-0.005203360423645545,"20":-0.02292291271596214,"21":-0.018578907922840813,"22":0.164827492904887,"23":0.2073595959091049,"24":0.22062369993818093,"25":-0.028109978754889502,"26":0.07257785396173536,"27":-0.11419247280478605,"28":0.13476796755847173,"29":0.011174338481902496,"30":0.17119420005155425,"31":-0.043497477684659024,"32":0.15232041709043095,"33":-0.10521249189482361,"34":0.1890640097711414,"35":0.3380977365813416,"36":0.005954250351797715,"37":-0.00523558242285373,"38":-0.3306171427762298,"39":-0.04641110180483317,"40":0.07552111256002306,"41":0.05221936918250059,"42":-0.06387428679717903}},{"sx":1,"sy":1,"depth":43,"w":{"0":-0.0016103358469956616,"1":0.11466597179623686,"2":-0.012474411877302017,"3":0.0935417633781891,"4":0.03530171084233586,"5":0.09603834434891506,"6":0.06980057947395213,"7":0.19690603158635928,"8":0.3592710879231324,"9":0.09369098189847712,"10":-0.04350044800800571,"11":0.04606947585886967,"12":-0.09976528889519717,"13":-0.13304258878557904,"14":-0.11747613045636439,"15":-0.10882564914986424,"16":-0.20769010218425615,"17":-0.19846313159548712,"18":0.35587429509197,"19":-0.3277325751234034,"20":0.054745064405073256,"21":-0.19262884865285615,"22":-0.07800642209553688,"23":0.021804079664759182,"24":0.0964784454007774,"25":-0.14123495176926773,"26":-0.12167021769735299,"27":0.0333903614586237,"28":-0.09663562870982999,"29":-0.01770803477471208,"30":0.005080315939518011,"31":-0.14274194221815253,"32":0.008465900720016526,"33":-0.11087660269319838,"34":0.011571211657842152,"35":-0.031550929494727174,"36":-0.32469338204086445,"37":-0.24089482488903538,"38":-0.1329129197264748,"39":-0.0442079789923323,"40":-0.2948951883351609,"41":0.07655524706932526,"42":-0.04418370849158367}},{"sx":1,"sy":1,"depth":43,"w":{"0":-0.35690625302907775,"1":-0.11077424281234897,"2":-0.35487471547406996,"3":-0.09987869241550147,"4":-0.27436071206177853,"5":-0.1339396627939874,"6":-0.0309677957546577,"7":-0.3989966999416637,"8":0.012025859603626812,"9":0.011278708407271066,"10":0.15760995058260302,"11":0.38347825168224886,"12":0.18531044077077552,"13":0.37942437245502164,"14":0.17539011525302337,"15":0.1886090744421113,"16":0.35829563432919703,"17":0.1998162164675116,"18":1.3670121991061557,"19":-0.3203371931948254,"20":0.12026551413108555,"21":-0.1906166516702187,"22":0.057806476612764945,"23":-0.13136197199810173,"24":-0.03611964721604717,"25":-0.17836363346923084,"26":-0.13281225093901058,"27":-0.1816155610784334,"28":0.058414841195419356,"29":0.2017526875988557,"30":0.43927445645996893,"31":0.22930322929684901,"32":0.26750977096840406,"33":0.20811574137999786,"34":0.0615884358902741,"35":0.03269396404146227,"36":0.2519254454993576,"37":0.07698462861075905,"38":0.008207186963920135,"39":0.08827105590289487,"40":0.11995298705962068,"41":0.03723918337342018,"42":-0.0011913086667242033}},{"sx":1,"sy":1,"depth":43,"w":{"0":-0.17242766580977784,"1":-0.15152447280607984,"2":-0.05600085411558104,"3":-0.06432826831037619,"4":-0.37856249401562064,"5":-0.19271424560946396,"6":-0.2279313169613672,"7":-0.035598669508696876,"8":-0.2159480330865934,"9":0.13878688111438853,"10":-0.20515893357916248,"11":0.0485658726557711,"12":-0.09645002502991926,"13":0.06914333648774072,"14":0.03688893477540959,"15":0.02237601723800146,"16":0.052803240097305186,"17":0.10103458557754706,"18":-0.34703512478059934,"19":-0.03430202738531446,"20":0.11365728695748949,"21":-0.30274165148777077,"22":-0.21788843485668863,"23":-0.39137340690235395,"24":-0.19290495383642012,"25":-0.21864390770807998,"26":0.1012851335172759,"27":-0.006006813466472545,"28":0.16470770704737284,"29":0.011600610185797711,"30":0.033267997944363234,"31":0.0550802579879831,"32":-0.21541486875703952,"33":0.14090687342208782,"34":0.028414847141133903,"35":0.2065193310123051,"36":-0.41330411874538947,"37":-0.07236766228884876,"38":-0.08194771338324483,"39":-0.043161218596606724,"40":0.0017284650860900307,"41":-0.0006564799167389021,"42":-0.019524971776902038}},{"sx":1,"sy":1,"depth":43,"w":{"0":-0.08424003436414236,"1":0.02990652313494378,"2":-0.0835459656527869,"3":0.09929779122166794,"4":-0.004580743890448611,"5":0.1028572884952371,"6":-0.5077065329606063,"7":0.06921440730003413,"8":-0.3398424795098856,"9":-0.24956628573209477,"10":-0.17531994422817837,"11":0.03385365880145568,"12":-0.14126703755638817,"13":-0.16384613795632375,"14":-0.0845575272951287,"15":-0.17221593344323669,"16":0.08545388706652125,"17":-0.3246296025842387,"18":-0.33654060199703306,"19":0.0649616952745351,"20":0.10858199739557965,"21":-0.14812658284482733,"22":0.1397848748542792,"23":-0.2677584875633324,"24":0.07901575756764018,"25":-0.11420472175423887,"26":0.02040009621450352,"27":-0.15179061354395565,"28":-0.1484412996009738,"29":-0.034027906875219394,"30":-0.3833414491899572,"31":0.27057037727291616,"32":-0.15682689035546477,"33":0.2506307678671487,"34":-0.037632974822891546,"35":-0.12931477556216742,"36":-0.012036116846045624,"37":0.4526958450715149,"38":-0.002716936031562527,"39":0.17987175509983458,"40":0.3249309400587753,"41":-0.24608770293791976,"42":0.19376419467049075}},{"sx":1,"sy":1,"depth":43,"w":{"0":0.1699718444347411,"1":-0.11390017116481664,"2":0.035467953031425616,"3":-0.014136018550995342,"4":-0.24341729567105655,"5":0.3213351729398227,"6":-0.2137960079030127,"7":-0.24946099532877225,"8":-0.1719626990825605,"9":-0.0687125985464183,"10":0.11895407416742004,"11":-0.0832266923815715,"12":-0.10422972790623113,"13":-0.09016991467698152,"14":0.22586647984260744,"15":-0.30722883319011396,"16":-0.026007767428643604,"17":0.011272311640023546,"18":-0.09618679187767756,"19":-0.16879949803275227,"20":0.06574150930980706,"21":-0.2681466058380495,"22":0.05109874975798861,"23":-0.02129539814058141,"24":-0.18048023586489348,"25":0.052892836049289266,"26":-0.10103108241892517,"27":-0.06671230555451016,"28":0.11723209059566062,"29":-0.09346414208713691,"30":-0.013531858051564488,"31":-0.1845669208258469,"32":-0.0038887575395131825,"33":-0.3009186798550314,"34":0.0923474679229872,"35":-0.12950424423603835,"36":-0.3177099987942193,"37":-0.13902690448041163,"38":0.009200591774800624,"39":-0.05929545769935529,"40":0.1443488099756484,"41":-0.09707441779520762,"42":-0.08694381865251621}},{"sx":1,"sy":1,"depth":43,"w":{"0":-0.09523870153132963,"1":0.03504240956519907,"2":-0.20038994394400142,"3":-0.1678459395262802,"4":-0.057131873464160994,"5":-0.23502558641770252,"6":0.6566646672103644,"7":0.3706718035565136,"8":0.9655977230996883,"9":0.9749834324925027,"10":0.5679304198371191,"11":0.6388582931464976,"12":0.25650064333846145,"13":0.21238360323507352,"14":-0.0638919593975262,"15":0.2643327901891482,"16":-1.9555103823891342,"17":0.12408345141173457,"18":-0.612353303796482,"19":0.15009044568324373,"20":0.05488929376684416,"21":0.011785334251645806,"22":-0.1271315695678773,"23":-0.005685935291269062,"24":-0.10070887773543814,"25":0.21655308814836513,"26":0.2677049173063156,"27":0.3060116282400316,"28":0.3414266192368123,"29":-0.02374389172507229,"30":0.23072090863455255,"31":-0.023874477873214936,"32":0.06687332812835597,"33":0.03518390661866987,"34":-0.017458274933614088,"35":-0.49839018939752466,"36":0.019012833987674633,"37":-0.360095725880159,"38":-0.1885376015936097,"39":-0.18100827280695686,"40":-0.1851740445160344,"41":-0.2173082490471425,"42":-0.16602100508019135}},{"sx":1,"sy":1,"depth":43,"w":{"0":0.10031513838395473,"1":0.08883363071461019,"2":0.005788344689958098,"3":-0.1730600297791638,"4":0.0859399791092464,"5":-0.035978953205226503,"6":-0.3419291982885654,"7":0.11181946765003235,"8":-0.023944877629882014,"9":0.09475040951234961,"10":-0.09089475413516385,"11":0.10926374793387052,"12":-0.058042178959846626,"13":0.42977597762964487,"14":0.11674341896378301,"15":0.19654775284853052,"16":0.6681446275646118,"17":0.09782365436252352,"18":-0.41690985836732897,"19":0.05433763093254574,"20":-0.008315545303884677,"21":0.01477623726023316,"22":0.12058357546504772,"23":-0.15978422987167476,"24":0.07210217838768224,"25":0.054569494733217365,"26":-0.2337163131227985,"27":-0.09015891256460508,"28":-0.11123092817846691,"29":-0.05472989387119489,"30":-0.12036223369755146,"31":0.10166045440983575,"32":0.08494350710851531,"33":0.18336385276889292,"34":0.21675736311095203,"35":0.22220135802044283,"36":0.14223872540768215,"37":-0.3623614408465878,"38":-0.14925691309556807,"39":-0.0010279123582079557,"40":-0.07089545970406032,"41":-0.0025076581852579555,"42":0.12590848843236507}},{"sx":1,"sy":1,"depth":43,"w":{"0":0.12703327136678155,"1":-0.07336431492784598,"2":-0.28941719558427526,"3":-0.2785800623011101,"4":-0.4632262487259454,"5":-0.7500079612976206,"6":-0.08944460742292448,"7":-0.8484867498924565,"8":0.5602751527276492,"9":-0.5605727624267575,"10":1.0213383921062602,"11":0.36552172983749376,"12":0.589626925490675,"13":0.5064893031457157,"14":0.5844511608479653,"15":0.7978560381864606,"16":-0.7413750928654717,"17":-0.3197106595868892,"18":-1.7709351928950812,"19":0.0022104794426904694,"20":0.3535980645429719,"21":-0.03128373920935123,"22":0.5149908974380916,"23":0.11221381854391493,"24":0.45459358725110216,"25":0.028684681787642555,"26":0.42493912751331175,"27":0.2895292401030258,"28":0.2789369833886641,"29":-0.05318234894197698,"30":0.12111557695372822,"31":-0.11606255622071918,"32":-0.08486493753300238,"33":-0.3147127565722354,"34":-0.34607681554224273,"35":-0.5551751131494524,"36":-0.6564957138254713,"37":-0.2717417295034453,"38":-0.005555749390310987,"39":-0.013549403092947502,"40":-0.008278895772014233,"41":-0.00565892527834279,"42":-0.13897272311580314}},{"sx":1,"sy":1,"depth":43,"w":{"0":0.06093588178529657,"1":-0.14144562025931623,"2":-0.02084376179697842,"3":0.015963897021898182,"4":-0.03668395865492927,"5":-0.13102516202812278,"6":-0.014627844184498723,"7":-0.20199329923006618,"8":-0.0367784622816185,"9":0.0824765796153407,"10":0.26899609514852274,"11":0.12581315771706675,"12":-0.10809548470699623,"13":-0.03147760886781787,"14":-0.11815848773028362,"15":0.018296708821062737,"16":0.2134569666541192,"17":-0.1352246325388189,"18":0.08340450366294239,"19":-0.14974439399306672,"20":-0.01260140455705011,"21":-0.09428292785127074,"22":0.04327308324832859,"23":-0.1399319099581172,"24":-0.04406150818581878,"25":0.11350785610153946,"26":-0.014252209160914684,"27":-0.026953650009633883,"28":0.1218401125905918,"29":-0.08067611076329183,"30":-0.046816899472682735,"31":-0.03574212737580871,"32":-0.06729131592849893,"33":0.03669617969251851,"34":-0.11362015854726369,"35":0.1854376317467349,"36":0.17165760355923984,"37":-0.0440856904849784,"38":-0.01966044973926043,"39":-0.06876027185474157,"40":-0.04072838949053715,"41":-0.04240572371188528,"42":-0.05358085603138374}},{"sx":1,"sy":1,"depth":43,"w":{"0":-0.2024598267936982,"1":-0.08106154464045683,"2":-0.07534386094560924,"3":-0.049905012639665784,"4":0.013165063513190123,"5":-0.1495698331198806,"6":0.028839555013674675,"7":0.012712674829927594,"8":0.20455753571661672,"9":0.30951105212665314,"10":0.1269899556466357,"11":0.22159377261978377,"12":0.1238393258888504,"13":0.13305930964706822,"14":-0.012560417776206778,"15":0.11159126879106186,"16":0.10116374271574922,"17":-0.02797369194229391,"18":0.029009530696869446,"19":-0.07928490880988433,"20":-0.17391266569292804,"21":-0.1691411196978399,"22":-0.12627178609511305,"23":0.04858049641043546,"24":0.1447213210839094,"25":-0.022585662488435836,"26":-0.1517721385297224,"27":0.08153412214118771,"28":-0.14175813345299626,"29":0.1835602739491569,"30":-0.07000445964212045,"31":-0.0012886160657045202,"32":0.007001194593777975,"33":0.027521666443556594,"34":-0.1785167722546152,"35":0.20589396794335726,"36":-0.054931239540478675,"37":0.3610575883595939,"38":-0.07803818019709742,"39":-0.14391080962663597,"40":-0.09690611998690483,"41":-0.14492381709447805,"42":0.20447765751543737}},{"sx":1,"sy":1,"depth":43,"w":{"0":0.06826466905632002,"1":-0.21492544010041167,"2":-0.08642319595078711,"3":-0.009698456536056277,"4":0.08347894471936948,"5":-0.10203645311004651,"6":0.08850323238788257,"7":-0.0029799977454880652,"8":-0.02069495945507072,"9":0.21808242764956512,"10":-0.14330788555334603,"11":0.08142064525545863,"12":0.0570219477480672,"13":-0.005787599324045899,"14":0.05464754187968312,"15":-0.10526933037593077,"16":-0.11851594878401041,"17":0.24921639915825247,"18":0.02108387889449369,"19":0.045375121342813345,"20":-0.006766482314113505,"21":0.011128800490907368,"22":-0.09634252267794571,"23":-0.16927571380961717,"24":-0.09370534810876387,"25":-0.026727603894971773,"26":-0.12455954737717433,"27":0.18083017572265755,"28":0.1140862771652499,"29":0.07989634254781987,"30":-0.16180897482062095,"31":0.029723094841469858,"32":0.04118694525110674,"33":-0.1719723913674093,"34":0.0551920356448665,"35":-0.20070094427672588,"36":-0.06685089911702845,"37":-0.13990430091223782,"38":-0.033994673910100144,"39":-0.02499788849655127,"40":-0.11622147603570641,"41":-0.05995699904162497,"42":-0.05720251080496765}},{"sx":1,"sy":1,"depth":43,"w":{"0":-0.0677733777979688,"1":0.04160118593111912,"2":0.19601278640106642,"3":0.2698315636440153,"4":0.13492357264760324,"5":0.25789992687475705,"6":-0.31975718319563795,"7":0.03303003118737777,"8":-0.00005717517965707037,"9":0.05281270897769475,"10":-0.08535487342757593,"11":-0.009815730504353871,"12":-0.04558897927541476,"13":-0.3578483992281483,"14":-0.00827861963092171,"15":-0.12260690254738367,"16":0.29038037394735694,"17":-0.2674217843389214,"18":-0.004895032940149815,"19":-0.17027704755967576,"20":0.19929374669945135,"21":0.02997308223835543,"22":-0.04556107329647057,"23":0.12207204446543288,"24":0.03815111381173085,"25":0.14550752954978025,"26":-0.03378845923540184,"27":-0.041938033126576416,"28":0.17019031553282304,"29":0.32035953060689654,"30":-0.14486760618337574,"31":0.15342909194749796,"32":-0.19649926350464395,"33":0.05364926177588575,"34":-0.16481512686200647,"35":0.19654344888140568,"36":-0.005795597068545628,"37":0.102630408615544,"38":0.1369235393489305,"39":-0.10519714367054459,"40":-0.15373154645346082,"41":-0.10554535391664506,"42":-0.11593410997987373}},{"sx":1,"sy":1,"depth":43,"w":{"0":-0.09006318350222585,"1":0.4424827997209535,"2":-0.28630473700168635,"3":0.27976170460332056,"4":0.14507637514438712,"5":0.37218596368912826,"6":0.225073528592298,"7":0.1984673975086947,"8":0.29309706290215903,"9":0.21253367134492607,"10":0.39853225593350033,"11":0.05285639038864798,"12":0.1073976652007315,"13":0.039480660645685166,"14":-0.2549806959408351,"15":-0.1153036099466219,"16":-0.4287192786342629,"17":-0.32167089871918814,"18":-0.011266901489457576,"19":-0.10992434942326554,"20":0.4967035081869139,"21":-0.2079030175456352,"22":0.020611316145903547,"23":-0.31074583037403425,"24":-0.12890918412733068,"25":-0.04657232895965678,"26":-0.3562025572051408,"27":-0.15485638370488727,"28":-0.39541260483624385,"29":0.129472195441055,"30":-0.1764078842065862,"31":-0.2668396689741654,"32":-0.12792760140243165,"33":-0.06180566052749268,"34":-0.23646138004805842,"35":-0.024177256499515073,"36":-0.4478985145152177,"37":-0.03638668492677289,"38":0.13016711962355815,"39":0.06880336416784433,"40":0.11015842297721885,"41":-0.22661154116803114,"42":0.050420874352965155}},{"sx":1,"sy":1,"depth":43,"w":{"0":-0.19243666866330003,"1":-0.037727140576682326,"2":0.07639712152541185,"3":-0.029391541005348194,"4":-0.046362851701634206,"5":0.011282970293392588,"6":0.19851779799006922,"7":-0.1972283334809398,"8":-0.13745234664559255,"9":0.15744381333354218,"10":0.19557457296218747,"11":-0.2522586796187319,"12":0.1802383526169248,"13":-0.051716760779717055,"14":0.16182512230880605,"15":-0.2398923081921844,"16":0.2503869602414275,"17":-0.004196201573413781,"18":-0.19318058175315475,"19":0.07939331999301218,"20":0.14179339973612526,"21":0.06638330511409546,"22":-0.3212333629256491,"23":-0.06344733366619548,"24":-0.056939924323875894,"25":-0.05355251452688604,"26":-0.07811344048843338,"27":0.08235650907049746,"28":-0.217016399831914,"29":0.22307821926014998,"30":-0.04828012310915869,"31":0.12756297783451218,"32":0.1371846536739582,"33":-0.10430307237011376,"34":0.055938884272216806,"35":0.05803380421621634,"36":-0.07301622713841516,"37":-0.16119426474983625,"38":-0.06255695268950959,"39":-0.12889784471049404,"40":0.059185803658960076,"41":0.1398501349014164,"42":-0.010834134012225853}},{"sx":1,"sy":1,"depth":43,"w":{"0":0.7262099900278403,"1":0.08169923365162231,"2":0.3860027327145125,"3":-0.02400661485959958,"4":0.07605850963777948,"5":-0.10591459658589453,"6":-0.07902922458493802,"7":-0.36864699163629333,"8":-0.13003933843129448,"9":-0.43884005855564967,"10":-0.1389683632873898,"11":-0.5165037355586576,"12":0.0663005381108906,"13":-0.349369012050884,"14":0.19173316667243176,"15":-0.139842654906106,"16":0.5754542811066511,"17":0.20751120489175237,"18":-0.6698639733851207,"19":0.3524749810806273,"20":0.4374318098167538,"21":0.18207132875204277,"22":0.27724738867901144,"23":0.02547178944315869,"24":0.5327862701483265,"25":-0.0927972435553222,"26":0.5567313477108137,"27":-0.11475902573105692,"28":0.4473778641322503,"29":0.010641013145854878,"30":0.3615312767649695,"31":-0.11291557194610022,"32":0.32718370086310467,"33":0.19965459510813774,"34":0.38905561306801306,"35":-0.1771566537352465,"36":0.36472126505316577,"37":-0.037462248878591224,"38":-0.12915674781697045,"39":-0.1260919746512202,"40":-0.129460057594014,"41":-0.12694927412227328,"42":-0.07523149059678594}},{"sx":1,"sy":1,"depth":43,"w":{"0":-0.9493067360825994,"1":-0.4198550279443529,"2":-0.7342434235985734,"3":-0.24903666353809417,"4":-0.8760927109000589,"5":-0.623932967143112,"6":-1.1704627376913594,"7":-1.1783681702744029,"8":-1.1877756439313878,"9":-1.6707950014450845,"10":-0.47912594909416645,"11":-0.7916485454372172,"12":-0.4299513787892923,"13":-0.4527126294605592,"14":-0.6561296919662234,"15":-0.6746036298509881,"16":-0.8924835395866176,"17":-0.9632453653295221,"18":-0.08079444284654441,"19":-0.1996182141663947,"20":0.2619629636065256,"21":0.11852811343740627,"22":0.2717295958233861,"23":0.02813932288274517,"24":0.2328108244095214,"25":-0.03545978539982803,"26":0.2445534507538515,"27":0.21123219475099259,"28":0.20240564628837704,"29":0.12727216094622046,"30":0.18864826222940836,"31":0.19716453909099996,"32":0.2506839347584844,"33":0.06794446124525191,"34":0.030480543538576203,"35":-0.014010610009320662,"36":-0.030866920316517475,"37":-0.2980413055711534,"38":0.5042394049094517,"39":0.5021861340683688,"40":0.47872688177912914,"41":0.4657978366462816,"42":0.48652955194951447}},{"sx":1,"sy":1,"depth":43,"w":{"0":0.22417886652190921,"1":0.5895951706678719,"2":-0.02299917265023045,"3":0.4996101483596754,"4":-0.10758644775707026,"5":0.42712138569021657,"6":0.10113946036993732,"7":0.12650996940757755,"8":-0.1818433065564865,"9":0.08585289864896778,"10":-0.40522164521441684,"11":-0.16192656347732107,"12":-0.24470470597611593,"13":0.19341575835683833,"14":-0.17626625706122026,"15":0.020006415430824542,"16":-0.43845709260411786,"17":-0.17053775013628916,"18":0.9643720938347833,"19":0.03887196188836322,"20":0.055823897567304784,"21":-0.10178000969584004,"22":0.022216367964605334,"23":-0.09868608270419155,"24":-0.22791383622241151,"25":-0.09619699950106553,"26":-0.054531900006287506,"27":-0.15595159837067185,"28":0.022118758290313775,"29":-0.18545547995196376,"30":0.048853069884678066,"31":-0.04764669296004269,"32":-0.002889796184247056,"33":-0.10278465360416318,"34":-0.05299633424131353,"35":-0.1546400229258096,"36":-0.051460849541061185,"37":-0.6649626295946673,"38":0.14568710818013333,"39":-0.1350368715451238,"40":0.23428066106725606,"41":0.1729700518143585,"42":-0.13940546088038427}},{"sx":1,"sy":1,"depth":43,"w":{"0":-0.15196262598414836,"1":0.28617895299204826,"2":0.026829349281374676,"3":0.2933081694451329,"4":0.15034346004830298,"5":0.3512104002136503,"6":-0.2866002887213075,"7":0.12558018768067153,"8":-0.2841454519369814,"9":-0.09571317313924237,"10":-0.37207939932471085,"11":-0.12515816810215705,"12":-0.46126021196899913,"13":-0.1654246466055918,"14":-0.27106515483490023,"15":0.040892394378154395,"16":-0.3309428415451767,"17":0.020627327319556896,"18":-0.32194204558300527,"19":-0.1713301451032302,"20":0.06906044859408059,"21":0.18230154508560245,"22":0.13068560757772796,"23":0.09183338608191707,"24":0.014059097358056756,"25":-0.08575069516713382,"26":-0.2866974488887362,"27":-0.28827166248901115,"28":-0.5541754784805262,"29":-0.028402854767952665,"30":-0.3818992321055068,"31":-0.17338948011620828,"32":-0.17034820266516157,"33":-0.004314177403407385,"34":0.048434391913163205,"35":-0.16440278518390314,"36":-0.1320806682059244,"37":0.5139273111298682,"38":-0.08590930896223725,"39":-0.15341286630528814,"40":0.08508810837009413,"41":0.10668974320465706,"42":-0.03956339858952225}},{"sx":1,"sy":1,"depth":43,"w":{"0":0.01666604051861468,"1":0.4072451811292606,"2":-0.06278571046362351,"3":0.4807690310199433,"4":-0.07111796133705289,"5":0.23003144048695284,"6":-0.26469009410976585,"7":0.14119632628921644,"8":-0.27450695712896067,"9":-0.25326489646913236,"10":-0.010673203966303075,"11":-0.17836466462893164,"12":0.28373098607396485,"13":-0.00007746645296547228,"14":0.1877155478310081,"15":0.1424676177576753,"16":0.49812034661014065,"17":0.2757599792924345,"18":-0.38090825967688374,"19":0.08823727142512516,"20":0.28729977892698505,"21":0.07744014042524892,"22":0.056933494318469814,"23":-0.1447671915061809,"24":-0.23372661810552636,"25":-0.15522094705402845,"26":-0.5206891993181519,"27":0.17110450562781265,"28":-0.3471924933395398,"29":0.21969764647321513,"30":-0.05754866626039821,"31":0.10105445058268778,"32":0.06397309785603972,"33":0.2581469512211131,"34":0.17364080199478657,"35":-0.03760577459748549,"36":0.23061129334908662,"37":-1.4472820795537662,"38":0.02470097928219682,"39":-0.16977833882427756,"40":0.1175268122927073,"41":0.042001450623717754,"42":-0.15635204264400182}},{"sx":1,"sy":1,"depth":43,"w":{"0":0.5128239272686397,"1":0.37054674136562993,"2":0.8751559582809638,"3":0.27090863914045826,"4":0.9874062275807951,"5":0.23851344124451862,"6":0.6381955373463953,"7":0.39409038690644044,"8":0.07422858883229419,"9":0.19660675140148914,"10":-0.6146613494459042,"11":-0.36073550941254184,"12":-0.9406715125743329,"13":-0.2935690634373463,"14":-0.8871238800289465,"15":-0.25909536027586333,"16":-0.7042855921677885,"17":-0.4897490694761157,"18":-0.019000758467105628,"19":0.4458946163968979,"20":0.12971833892878423,"21":0.7220844858706083,"22":0.11994523892232686,"23":0.28550420600500626,"24":0.049423476770844334,"25":0.06733629667630142,"26":0.10072788958762548,"27":-0.23482129202327323,"28":0.017426772647419726,"29":-0.3642896358701034,"30":-0.24566724651331576,"31":-0.5030507515590528,"32":-0.17787818168325129,"33":-0.13538500360653877,"34":-0.002211091492972764,"35":-0.0461133094852905,"36":-0.1777946359426814,"37":-0.2731898932585972,"38":0.008279014492377473,"39":0.0007783075350802407,"40":0.0070647143558480625,"41":-0.08558601013801417,"42":0.034985004944237376}},{"sx":1,"sy":1,"depth":43,"w":{"0":0.0750748195000893,"1":-0.22292434788234927,"2":-0.0899436759949355,"3":-0.019309265470229348,"4":0.10283943883152552,"5":0.05827140714538298,"6":0.46482708431217173,"7":0.32868799933801307,"8":0.7279060368816885,"9":0.5155155969490729,"10":0.10206650997535051,"11":0.04762708960242141,"12":-0.19656517324728093,"13":0.17401326507643242,"14":-0.3076942718625561,"15":0.22833399322342487,"16":-0.4463580122051422,"17":-0.2406034771344539,"18":0.12182887904578187,"19":0.17602085760390326,"20":-0.0386125491487395,"21":0.19567605095027563,"22":-0.07862951690137543,"23":0.29399093363105233,"24":-0.07099885739319657,"25":0.31531436972958576,"26":0.1964351639121466,"27":0.25298885371085156,"28":0.1267821199241769,"29":-0.4181630845567287,"30":0.03155100356610725,"31":-0.342782319869423,"32":-0.09546331965781225,"33":-0.2026729728849446,"34":-0.08733916678684087,"35":-0.06683890115426405,"36":-0.09303559853039849,"37":-0.36084500048474494,"38":-0.13073703300542933,"39":-0.09316391617460412,"40":-0.14070941698228148,"41":-0.027478663049317197,"42":-0.019230562127929684}},{"sx":1,"sy":1,"depth":43,"w":{"0":0.11292982172775097,"1":0.17349802068230172,"2":0.06281503634116055,"3":0.3332430851376354,"4":-0.11303969407282596,"5":0.060479736769084406,"6":0.12484931075607864,"7":-0.06091621766940371,"8":-0.10394543312468167,"9":-0.15167795127427827,"10":-0.08837264261114497,"11":0.11258712755453959,"12":-0.14682971971959333,"13":0.04930785257578724,"14":0.0933877353236366,"15":0.08788138074753286,"16":0.2157031208257936,"17":0.31271302653002103,"18":-0.9202439402021306,"19":0.0012845510870135456,"20":0.02971048143796775,"21":0.2651891509202027,"22":0.278014946260736,"23":0.2421750000694769,"24":0.1673708948701329,"25":0.1254376944804825,"26":0.12846793496429107,"27":0.06526506372686686,"28":-0.1641358637553042,"29":-0.12128318959431204,"30":-0.06292886033052919,"31":-0.049318237180513924,"32":-0.09298519710606827,"33":-0.10856471469081805,"34":0.01688144657299953,"35":-0.049301433941472336,"36":0.12298483156607334,"37":0.028908872184501312,"38":-0.19281408147176046,"39":0.055013516913658966,"40":-0.12979813394119935,"41":-0.13202689827564815,"42":0.06737474751430705}},{"sx":1,"sy":1,"depth":43,"w":{"0":0.24859461943734,"1":-0.03463398527172459,"2":0.15439347767078354,"3":-0.06291897840981828,"4":0.1211354838865778,"5":-0.10615148297073566,"6":-0.0903537812060882,"7":0.05842694629624821,"8":-0.11950864658859511,"9":-0.32024226058052657,"10":0.0960633901902894,"11":-0.5862844445671841,"12":0.6602326880327827,"13":-0.5958855619519786,"14":0.957143254426218,"15":-0.558520938234003,"16":0.6481810353753998,"17":-0.0342934205234528,"18":-0.6528325391340065,"19":0.12310078420216625,"20":0.041019353259287725,"21":0.14887105296678735,"22":0.1394800385440222,"23":0.3686508449421655,"24":0.4606623351482203,"25":0.18879953274395056,"26":0.7839073567866864,"27":0.14862409768428586,"28":0.5291796053809211,"29":0.12104181962948107,"30":0.2719887556377698,"31":0.5078912103923752,"32":0.167828099233547,"33":0.13750674708513538,"34":0.06871674493254161,"35":-0.18107283574530034,"36":0.1340956462844734,"37":-0.19867869869221302,"38":-0.3205606022905172,"39":-0.3119822099883985,"40":-0.2935181682744844,"41":-0.28762895694001084,"42":-0.3362518891666962}},{"sx":1,"sy":1,"depth":43,"w":{"0":-0.1967108608837011,"1":-0.12712667473813957,"2":-0.20124090093845676,"3":-0.13822833037393273,"4":-0.06992040368709121,"5":0.0731329693501209,"6":-0.09165570197249073,"7":0.01999213638543226,"8":-0.08046337502494295,"9":-0.12289819598769254,"10":-0.29339048419866337,"11":0.2050275274221062,"12":-0.28535979434251774,"13":0.07491712876873778,"14":-0.38683996793551445,"15":0.0025486271190776084,"16":-0.5195784278960582,"17":0.18249087264899086,"18":0.6586513803069677,"19":-0.04675910360694077,"20":-0.2753085769233755,"21":-0.1736529200085002,"22":-0.08638998949717296,"23":-0.25681638104862253,"24":0.06583893550911422,"25":-0.05813265062037641,"26":-0.09742360215203091,"27":-0.0037439339580615746,"28":-0.11423349912208856,"29":-0.12178052859561755,"30":-0.00874448624968515,"31":-0.18926915487487714,"32":-0.0962959674115072,"33":-0.24067765041269076,"34":-0.045912096804759245,"35":-0.393842828989705,"36":-0.14106748839396946,"37":-0.692171227770721,"38":-0.06519941162820468,"39":0.01338723618912942,"40":-0.21447270405289087,"41":0.0056541789010942,"42":0.015838744091579378}},{"sx":1,"sy":1,"depth":43,"w":{"0":0.1356525155855848,"1":-0.04034432061135934,"2":0.14698476700895094,"3":0.11519959963652888,"4":-0.005190185969528,"5":0.1657091329726802,"6":0.2003231051554651,"7":0.016291645866956878,"8":0.02717396343241245,"9":-0.10688040006301265,"10":-0.08187059751111597,"11":-0.17057782615929365,"12":-0.14716421542427968,"13":-0.10121546978692061,"14":0.05563686633363293,"15":-0.19695797138772675,"16":-0.036787134712102466,"17":-0.15990667062209396,"18":-0.0638239433065875,"19":-0.07491626579423206,"20":-0.09436887231090481,"21":0.11040521097157202,"22":0.11601170299931078,"23":-0.09197897341957335,"24":-0.177458873296802,"25":-0.04545504420396897,"26":0.0007670453238305236,"27":0.20257824903731975,"28":0.13919519438168088,"29":-0.29381723341133115,"30":0.2303188105308031,"31":0.02142560717785202,"32":0.06171612401523753,"33":-0.1577677221890963,"34":-0.012617796774872516,"35":-0.17004759391092628,"36":-0.12801656741880535,"37":0.06823093183086458,"38":-0.03764651856330254,"39":-0.126778199192763,"40":0.009574410056864819,"41":0.24229838800263023,"42":0.04077578633243713}},{"sx":1,"sy":1,"depth":43,"w":{"0":0.21807584251249174,"1":0.1923843466006763,"2":0.1782706087241294,"3":-0.024661823207505557,"4":-0.0432563810402508,"5":0.03753136843125437,"6":0.09575644781008494,"7":0.11728084531379634,"8":0.033296342385135305,"9":-0.04212696035122783,"10":0.1050655729631608,"11":-0.052649612004762196,"12":0.16393303091622047,"13":0.04873747412845445,"14":-0.21340898258578478,"15":-0.10859223088114786,"16":-0.2799920232831001,"17":0.0037199332314448185,"18":0.24681610845152618,"19":0.0797791235549704,"20":0.015931665890624717,"21":0.023988990836250123,"22":0.12207730597076134,"23":0.15057913650019616,"24":-0.06787581156089162,"25":0.15335453944461946,"26":-0.04121366019631453,"27":-0.005234643815863693,"28":-0.022536828239208925,"29":-0.04735597968759949,"30":0.024122518522838896,"31":-0.01162587207401343,"32":-0.07965978299565697,"33":0.02378047561158051,"34":-0.04132641296022655,"35":-0.5373936140693758,"36":-0.18001968863373974,"37":-0.35556562385225876,"38":-0.06031784674306197,"39":-0.10902666403501628,"40":-0.1726144333719915,"41":0.07074676936920293,"42":-0.06271835660589878}},{"sx":1,"sy":1,"depth":43,"w":{"0":-0.2846882333571434,"1":-0.40019797645038707,"2":-0.20959286608281122,"3":-0.059341164306397805,"4":-0.18413583930581232,"5":-0.14102818070646897,"6":-0.14971192932071253,"7":-0.03717271424252298,"8":0.067456695784583,"9":-0.024321569946221047,"10":0.40151383476426344,"11":-0.0633948462570307,"12":0.40392349757232393,"13":-0.004634771218313968,"14":0.27775293467948015,"15":-0.15164314084191735,"16":0.4509051045065263,"17":0.005987746523478917,"18":-0.5044840784873511,"19":-0.3647506763853317,"20":-0.2784702910741282,"21":-0.15143884986630696,"22":0.016488062110965863,"23":-0.11331661425877004,"24":-0.012277102780474008,"25":0.10301454312496282,"26":0.12767805400453208,"27":0.2937211549958959,"28":0.004419456423520141,"29":0.45737950744847056,"30":-0.02034922427778821,"31":0.2028083052660609,"32":-0.002119311188492471,"33":0.17591501360572645,"34":0.00646242463449374,"35":0.05418237868426548,"36":0.009736017052010174,"37":-0.5485790342791077,"38":0.029936099603186692,"39":0.14120071719588137,"40":0.16251306395084217,"41":0.1405565279278461,"42":-0.08826534424899264}},{"sx":1,"sy":1,"depth":43,"w":{"0":0.23300884713628714,"1":0.31838815199255244,"2":0.14620739657331897,"3":0.10530399103865837,"4":-0.20857396437826933,"5":-0.34071817689435957,"6":-0.23257139090447254,"7":-0.3893024597187551,"8":-0.4650814414922335,"9":-0.3696647075834572,"10":-0.23741681053217212,"11":0.035316244497426395,"12":-0.18288234054663594,"13":0.23058961551902363,"14":-0.32265426074896714,"15":0.2940162266935362,"16":0.0384704230665439,"17":-0.18837295363594536,"18":0.4872800371385609,"19":0.049962659389814784,"20":0.22505678206888863,"21":-0.115498698175293,"22":-0.07677108375052404,"23":0.12158001286308368,"24":-0.17268978498155158,"25":-0.11227925161790958,"26":-0.47086208229031995,"27":-0.21924159164692306,"28":-0.24429631607379634,"29":0.10501050042640288,"30":0.008183371733419141,"31":0.09536441632924562,"32":0.27454322805287656,"33":0.01448622365543437,"34":0.25256878809777933,"35":-0.12357027804849775,"36":-0.1085163396922954,"37":-0.1469094201135539,"38":0.12832619976874785,"39":0.14200309358996505,"40":0.1424575481445345,"41":0.09404975415561495,"42":-0.06535001352613753}},{"sx":1,"sy":1,"depth":43,"w":{"0":-0.1854798144369627,"1":-0.3412845691255192,"2":0.022797283289840358,"3":-0.45614222477923,"4":0.1369583560268162,"5":-0.40040882300046454,"6":-0.05343847033075631,"7":-0.30399744443809523,"8":-0.12708530930655182,"9":0.1633237677989587,"10":-0.25154645633405875,"11":0.22409513693272567,"12":-0.13011870938412365,"13":0.09248938538393937,"14":0.06976177978813665,"15":0.197453745238622,"16":-0.18096323133725012,"17":-0.00804071892762775,"18":-0.33489372297322023,"19":-0.05304492459002308,"20":-0.38502036507862886,"21":-0.17839502970704332,"22":-0.25818454466240015,"23":0.1090198928381836,"24":-0.40113588161488783,"25":-0.0410810298885366,"26":-0.24506977029753607,"27":-0.20620132592116938,"28":-0.07501051493020422,"29":-0.03715845481025516,"30":-0.11828684388065581,"31":-0.1754432664427954,"32":-0.06541035363697352,"33":-0.16790953635450606,"34":-0.12835627045024356,"35":-0.1255832217038687,"36":-0.14423506806279335,"37":0.2481727217410588,"38":-0.14340733182055398,"39":-0.02690219189145312,"40":0.0976019259246866,"41":-0.0628698760567692,"42":0.09523809480727674}},{"sx":1,"sy":1,"depth":43,"w":{"0":0.04545685555342401,"1":0.10459074552205742,"2":0.12670310921021916,"3":0.32041590073478815,"4":-0.15586362565354764,"5":0.10851028719699536,"6":-0.06187143800365728,"7":0.05727661022861049,"8":-0.1990711095245501,"9":-0.024325493119980172,"10":-0.09183990459300166,"11":-0.2056592156841255,"12":0.06778828954064804,"13":-0.061319335728011105,"14":0.011813529519065362,"15":-0.09561911772343372,"16":0.2574564233685067,"17":0.13896163543417742,"18":-0.08797072207232298,"19":-0.0194917371050574,"20":0.08641104061627382,"21":-0.11110923521267324,"22":0.1405211114719249,"23":-0.17934045426338716,"24":-0.023352015990803703,"25":0.13964365848867208,"26":0.06183326568860192,"27":0.1807626793736266,"28":0.07322661320114912,"29":0.13452922215640778,"30":0.02346043329572963,"31":0.04195029550135614,"32":0.043463759490495316,"33":0.05406710384241322,"34":0.01780464033450435,"35":-0.10382153394939976,"36":-0.16433807794602565,"37":0.5901215065624509,"38":-0.09700299282473002,"39":-0.09160920684125692,"40":-0.09681618610823134,"41":0.18338017668876522,"42":-0.0856166223977243}},{"sx":1,"sy":1,"depth":43,"w":{"0":-0.17711610962591304,"1":0.0030137363453167365,"2":-0.052649635553830794,"3":-0.06425795168153964,"4":-0.175019058005998,"5":-0.014055104354634456,"6":-0.09121215542199032,"7":-0.2063662351555501,"8":0.0911289692849314,"9":0.11473741540248107,"10":-0.06341012333301646,"11":-0.10851636988700235,"12":0.18075485423262866,"13":-0.010944219446424801,"14":0.12269124433883277,"15":-0.07729622019705934,"16":-0.038514346877480767,"17":0.1443862817035369,"18":0.0019203678135115687,"19":-0.09120388986685239,"20":0.0445064869921816,"21":-0.06528191392400655,"22":0.08348623718666198,"23":0.09591616793471183,"24":0.016769902156016266,"25":-0.03517877118792219,"26":-0.09429033459743158,"27":-0.00495035672427157,"28":0.0885360775591635,"29":-0.0011039164363658997,"30":-0.09628698263391354,"31":-0.0017302926989794984,"32":-0.005752702669617591,"33":-0.1366824382744644,"34":0.04074192340389227,"35":0.24750629891660295,"36":0.10377005327696119,"37":0.05982076964132724,"38":-0.02543220514758521,"39":-0.060982714391709526,"40":-0.041466316502810394,"41":-0.06825034646963328,"42":0.0612356264435918}},{"sx":1,"sy":1,"depth":43,"w":{"0":0.2136187714597303,"1":-0.2342712436617444,"2":0.09909174751816398,"3":-0.03341609345996477,"4":0.1797671650121515,"5":-0.3925426652105136,"6":-0.0938676907981215,"7":-0.11940936943487554,"8":0.1448211737248448,"9":-0.06954751948899515,"10":0.11555355030240197,"11":0.05811079142990154,"12":0.22547337359933414,"13":0.1512416617824209,"14":0.5278766077023409,"15":0.23904723045024914,"16":0.22647915097001178,"17":0.24022030723962212,"18":-0.2279368448915673,"19":0.18583870147185763,"20":-0.15108644312071728,"21":0.05324424882877294,"22":-0.24174624665398353,"23":0.1744346628976931,"24":0.00046513791720434005,"25":0.03874647743142092,"26":0.09123301181253474,"27":0.05591741633172631,"28":-0.1932545017891367,"29":0.30612032975196213,"30":0.1067987971014965,"31":0.043036539017336325,"32":0.2168630982813743,"33":0.19726983951388663,"34":0.14890497381174622,"35":-0.03893129475722063,"36":-0.007859273266520007,"37":-0.034308809366613555,"38":-0.19404327221848808,"39":-0.19355811743834697,"40":-0.19687605183255638,"41":-0.1962139355477487,"42":-0.19658056874701635}},{"sx":1,"sy":1,"depth":43,"w":{"0":0.044596825368700854,"1":0.27002191508383094,"2":-0.07801504382031588,"3":0.3016201431906027,"4":0.11162327827982713,"5":0.002973114505200381,"6":0.5943430726477998,"7":-0.11517719012810528,"8":0.9105555491765016,"9":0.12317809858974046,"10":0.9111798011892439,"11":0.16160439129568613,"12":0.3864177309734723,"13":-0.12808896609873344,"14":0.01742084868145454,"15":-0.2187778840896992,"16":-1.451118027858963,"17":-0.6893126645477085,"18":-1.107339558084564,"19":0.047604894489753816,"20":0.34079469081854713,"21":-0.04014008289147741,"22":0.21795386521208257,"23":-0.08431520879510727,"24":0.04375601644175852,"25":0.05778778889401788,"26":-0.07189813086256018,"27":0.1983999259969661,"28":0.08228755675597411,"29":0.13013821100008843,"30":0.15673233050223562,"31":-0.058566488501240445,"32":0.1278587839481341,"33":-0.35551426251483226,"34":-0.01687596395971789,"35":-1.00656152931548,"36":-0.10223372345915016,"37":-0.23950888860229544,"38":0.07430492323940166,"39":0.01841379553285283,"40":0.06562136895620398,"41":0.09573770150275068,"42":0.12608085797395976}},{"sx":1,"sy":1,"depth":43,"w":{"0":-0.10100947231304201,"1":0.06297186309606811,"2":-0.17683087721959817,"3":0.009429822552015563,"4":-0.1954146236524938,"5":0.005526503281382241,"6":0.06731979824005525,"7":0.11818583730890117,"8":0.024890001976821337,"9":-0.09578606388294544,"10":0.14589125719995533,"11":-0.04912010217877076,"12":-0.012241211978920596,"13":-0.1855343553131423,"14":0.3681806274502277,"15":-0.07027771675522936,"16":0.21298365150732787,"17":-0.23952615263705937,"18":0.30675574840102376,"19":-0.02137150155326583,"20":-0.016831127592240185,"21":-0.024422936957018034,"22":0.2793149008313454,"23":0.3259197610632577,"24":0.258493019569735,"25":0.14265628466054034,"26":0.14205747979721697,"27":-0.021258692066984573,"28":-0.06555194256470141,"29":-0.020984985344718418,"30":-0.27926865116020844,"31":0.2920557442003769,"32":-0.01698430162350714,"33":0.14975155918255778,"34":0.06535406070894126,"35":0.095792731988941,"36":-0.05222761878022732,"37":0.3374774471658009,"38":0.03229887267253156,"39":-0.16167664664516623,"40":-0.2235980077943013,"41":0.006939905171683497,"42":-0.08227873989418107}},{"sx":1,"sy":1,"depth":43,"w":{"0":-0.31155171151603045,"1":-0.25042209030348206,"2":-0.11022614536784882,"3":0.14930819256591563,"4":-0.00755377068444902,"5":-0.020348033416398254,"6":-0.1553533662509106,"7":0.07611376317069285,"8":-0.0028800745486369525,"9":0.1874764380016716,"10":0.1438536775941255,"11":0.2916490897501471,"12":0.04197472431473489,"13":0.32613251661872783,"14":0.20885349643613765,"15":0.10052687734585972,"16":0.30387239961029205,"17":0.13521327433702177,"18":-0.08756785291972644,"19":0.08093132429120171,"20":0.14266736866704938,"21":-0.1725437053886786,"22":-0.22745557279311915,"23":-0.12096343258171569,"24":-0.6058844513071712,"25":-0.22797664278164476,"26":-0.20403910489368424,"27":0.18418986388848005,"28":0.06110382215077307,"29":0.05787947588924278,"30":0.02872603283283765,"31":-0.09061228425343085,"32":-0.199464621888834,"33":0.1967287414591916,"34":-0.20796648150060773,"35":0.5075528134506893,"36":-0.17487552779845808,"37":-0.06793481262534903,"38":0.11300194328229507,"39":-0.21236288948832513,"40":0.08770233858726928,"41":-0.08557233681716617,"42":0.11312598140774399}}],"biases":{"sx":1,"sy":1,"depth":50,"w":{"0":0.08095482679187965,"1":0.08374821404124827,"2":0.09069007112183289,"3":0.10192533430561665,"4":0.11175152826599294,"5":0.07829807915733827,"6":0.09766395713240573,"7":0.08841366897891316,"8":0.11463515077195456,"9":0.10467233935601494,"10":0.060830558620702045,"11":0.06913475810753708,"12":0.089752126402639,"13":0.11396676373970156,"14":0.08809220188434624,"15":0.09325842783190791,"16":0.09766404864597679,"17":0.08057809317490691,"18":0.12758522652661852,"19":0.10615317937104907,"20":0.01816065178671321,"21":0.09498821192879854,"22":0.08412684661350836,"23":0.10011539490978971,"24":0.08349320711708803,"25":0.10003851589111644,"26":0.099032681316374,"27":0.10372927225568443,"28":0.11048823552355731,"29":0.07033456260750993,"30":0.22899261585018577,"31":0.11588003364565602,"32":0.11035926181517752,"33":0.09417908577977654,"34":0.11367396124687439,"35":0.07669204783760536,"36":0.10112060709046854,"37":0.01486034768001094,"38":0.10152085139228845,"39":0.0954944304269027,"40":0.09160980120395726,"41":0.11642653715939326,"42":0.11218848710450616,"43":0.09505146164490161,"44":0.09305695998890559,"45":0.09773719781232061,"46":0.047363365282810495,"47":0.10651617392491075,"48":0.0984685133656736,"49":0.11286664935812554}}},{"out_depth":50,"out_sx":1,"out_sy":1,"layer_type":"relu"},{"out_depth":50,"out_sx":1,"out_sy":1,"layer_type":"fc","num_inputs":50,"l1_decay_mul":0,"l2_decay_mul":1,"filters":[{"sx":1,"sy":1,"depth":50,"w":{"0":-0.09337040594246764,"1":-0.13301815799632874,"2":0.023722455383155247,"3":0.21011823427544987,"4":0.08418161402726457,"5":-0.020744119580719117,"6":-0.00026714797173057537,"7":-0.09093532970766353,"8":0.07257862214891653,"9":0.09258005342500036,"10":0.13220651729059388,"11":-0.16212185440479407,"12":0.07726282058448741,"13":0.0795445935362016,"14":-0.15532060817997018,"15":0.1406760953703185,"16":-0.124846969580632,"17":0.07114145556009045,"18":-0.06356839944125528,"19":-0.02376118758681583,"20":-0.012951337882190767,"21":0.09864863701268015,"22":-0.0584572618968725,"23":0.19119741660277045,"24":-0.0008494576750189012,"25":-0.11125122845987304,"26":-0.022730277234041973,"27":0.08715381870741967,"28":0.15379766689930263,"29":0.020894916642412605,"30":-0.2868608282162134,"31":-0.13024041170075154,"32":0.2146938991473501,"33":-0.016682185210907242,"34":-0.05156126369911446,"35":0.14120129182838687,"36":-0.20575446427549543,"37":-0.1768069114808453,"38":-0.06820258162421383,"39":-0.004897635343147199,"40":0.12335757165298084,"41":-0.05068806700443315,"42":-0.21958653434800893,"43":-0.013138522245551454,"44":0.31379009303357597,"45":-0.0632002243078565,"46":0.028741830062814264,"47":-0.03639517144521616,"48":-0.05801672443207049,"49":0.04513274684492658}},{"sx":1,"sy":1,"depth":50,"w":{"0":-0.06780191519972505,"1":0.004183165015228276,"2":-0.06857506914592039,"3":-0.020339161423292285,"4":-0.10641477038392115,"5":-0.05005982002050916,"6":-0.0745239227680036,"7":0.2805110665019081,"8":-0.1369953260669982,"9":-0.10530772950439558,"10":-0.04442185579459488,"11":-0.2768126111129149,"12":0.12948790354934572,"13":-0.14369452489784015,"14":-0.10799990111784759,"15":0.22666972872409746,"16":-0.02903838595158043,"17":-0.0616242102338295,"18":-0.08864252706832533,"19":-0.04100778121521514,"20":0.0692204599251413,"21":-0.13089363178830243,"22":0.1549111653749375,"23":-0.08268974081867896,"24":0.02307417914813868,"25":-0.0018067888150185597,"26":-0.03391438959087479,"27":-0.0446639267899456,"28":-0.1076527765510466,"29":-0.0993229537890575,"30":-0.027358741745343463,"31":-0.18879384582686876,"32":0.17381463134280248,"33":0.2302252122325563,"34":-0.1130518750157854,"35":-0.036523092797122736,"36":0.07428043924768664,"37":-0.03052498837047179,"38":-0.041322668338076796,"39":0.0032523621941968586,"40":-0.04158163895579616,"41":0.10858864282446722,"42":-0.031878392200366444,"43":-0.06599480798909887,"44":-0.06614439574400265,"45":-0.007221511937114216,"46":0.023903776724905568,"47":0.006135956302884262,"48":-0.28867601190309417,"49":0.03755188611052688}},{"sx":1,"sy":1,"depth":50,"w":{"0":-0.136212012666291,"1":-0.054400432790304036,"2":-0.035692896240615654,"3":-0.0796921398961448,"4":-0.0811078251424238,"5":-0.1636105746250891,"6":-0.05777005449949885,"7":-0.09822708758479082,"8":-0.002788074152079782,"9":0.14865529426573107,"10":0.07388985957059077,"11":-0.20335634744379752,"12":-0.06420570232935048,"13":-0.07353269135493085,"14":-0.019182211174384275,"15":0.06868344263352297,"16":0.021637646262077887,"17":-0.05934504286134954,"18":0.12830743390802218,"19":0.19534128851200364,"20":-0.06835502973910856,"21":-0.09824265222723581,"22":-0.14352699268164457,"23":0.09356819694497587,"24":0.06850339985151967,"25":-0.09422336428202083,"26":0.028447429081604,"27":0.010537878727892438,"28":-0.02198391605430166,"29":0.1663234069532607,"30":0.023065972662194626,"31":0.18523363034578355,"32":-0.01815329680643082,"33":-0.011054925051038304,"34":0.04647477670698036,"35":0.002206932968648088,"36":-0.0176436938034413,"37":0.1380262086869543,"38":-0.1571492968502273,"39":0.057644155619134246,"40":0.004638137690822869,"41":0.2241709581773797,"42":0.0354768049155551,"43":-0.1648436814016994,"44":0.0009629835511467398,"45":-0.046851232691398986,"46":0.009703237154985778,"47":-0.20618369046741766,"48":-0.1387071318466985,"49":-0.08912776006347675}},{"sx":1,"sy":1,"depth":50,"w":{"0":0.3892921578364173,"1":0.1876410343116746,"2":-0.3077080388742284,"3":-0.011133902823274307,"4":0.3788457986096318,"5":-0.17337791641373945,"6":0.3196922377971522,"7":0.4052939593343403,"8":0.14276658045619142,"9":-0.179462726030674,"10":-0.15599693056156688,"11":0.008683223215549601,"12":0.15441542193540492,"13":0.17449904063438626,"14":0.3185061519868521,"15":0.08808775797015675,"16":0.5849506433744349,"17":0.04575995798161876,"18":0.12715383859507964,"19":0.018410814122120756,"20":-0.35889832123201587,"21":0.07952239699190926,"22":-0.3061472574436158,"23":-0.06527810547211292,"24":0.1803566978132961,"25":0.042327889419482755,"26":0.07867486412348115,"27":-0.15828483184740547,"28":-0.20613334913069642,"29":-0.09832577183790377,"30":-0.5229227751380634,"31":0.010224019795358847,"32":-0.46548394505737367,"33":0.16922977365624695,"34":-0.16031935592279858,"35":-0.28551497086081723,"36":0.08979900362253254,"37":-0.134085214773065,"38":-0.3529048393263311,"39":-0.08998659262223228,"40":0.14234991602651945,"41":0.21008498192083994,"42":0.3430077300922588,"43":-0.17183992988031135,"44":0.23076333776252111,"45":0.04987453566757061,"46":-0.44153763268229124,"47":0.05797080141164518,"48":0.4092381583600923,"49":0.2138960824080728}},{"sx":1,"sy":1,"depth":50,"w":{"0":-0.08866454767375731,"1":0.04528543395003764,"2":0.14116059810388318,"3":0.18200919282510022,"4":0.15970784257633983,"5":0.15135143383094213,"6":0.17966910700282956,"7":-0.1103560877776826,"8":0.2920845065286366,"9":-0.1434900158335304,"10":-0.19447041763942471,"11":-0.03712786460847292,"12":-0.061524963035529415,"13":0.09081444779064686,"14":-0.2151533118611915,"15":0.013693437368382766,"16":-0.2872096434137416,"17":-0.10285152291549818,"18":-0.006005233511502574,"19":0.20541876822803778,"20":-0.03600117505348083,"21":0.17181710635600791,"22":-0.11709270878763506,"23":-0.13306182621225213,"24":0.029338520710275724,"25":-0.13098880681044411,"26":-0.031296457908982105,"27":0.09150541482001878,"28":0.14389053224848244,"29":0.2881903774563931,"30":-0.19783806117778657,"31":0.0002760001097198708,"32":0.07062187145107239,"33":-0.18688217346794025,"34":-0.12514607526533852,"35":-0.3883772173640523,"36":0.09156591191708564,"37":-0.2430446095377567,"38":-0.27757416053412937,"39":0.0771583479295693,"40":-0.04800299876249255,"41":-0.19942941612217602,"42":-0.04667606975525847,"43":-0.15462046310543937,"44":0.08825103257188661,"45":-0.031605511618676,"46":0.1758016478290805,"47":0.2545192855249149,"48":-0.03108818311658124,"49":-0.054468734369880596}},{"sx":1,"sy":1,"depth":50,"w":{"0":-0.22421792204749236,"1":-0.0009833871632561806,"2":0.25395167479544184,"3":0.2032377183815155,"4":-0.06460305369049991,"5":-0.5517253817317016,"6":0.09356813796035843,"7":-0.22004795409162556,"8":0.19494040549025488,"9":-0.2081804832303491,"10":0.10304059800168738,"11":-0.18913781595212148,"12":0.6016285528189929,"13":-0.07704733268625617,"14":-0.3404514457848194,"15":-0.28016881593846393,"16":-0.5467372493217321,"17":0.19141763973845105,"18":0.2591997180917117,"19":0.08404537687761394,"20":-0.7012534511309774,"21":0.49577459306877847,"22":0.0023696264255325746,"23":-0.06681408936894279,"24":-0.10734990701218852,"25":0.15860587865440823,"26":0.15393613707024045,"27":-0.2852815646657791,"28":0.12314897134587934,"29":0.49055863700347274,"30":-0.08974079306696744,"31":-0.11792299326244607,"32":0.036960097949141096,"33":0.7409787773916162,"34":-0.38246613637801663,"35":-0.30031533843905356,"36":0.6348552185572254,"37":0.6844660084561521,"38":0.18585154061928266,"39":-0.0043277153388307016,"40":-0.17368374603093636,"41":0.4698480606883915,"42":-0.257971539118606,"43":0.05790921332028733,"44":-0.026623379670375383,"45":-0.07090273938413567,"46":0.1607233553972506,"47":-0.0017534294752573679,"48":-0.11002895186014455,"49":0.02658712589418871}},{"sx":1,"sy":1,"depth":50,"w":{"0":0.26422955884786437,"1":0.008494601263412376,"2":0.0841379917739203,"3":0.14535223676026698,"4":-0.005705217379330336,"5":-0.049395717453975155,"6":0.12284601528117012,"7":0.2545334777899629,"8":0.2403949631073457,"9":0.04123816303767824,"10":0.11169069550924564,"11":-0.1528995552198894,"12":0.13878032674591084,"13":0.13775615358188834,"14":0.3306147624587984,"15":-0.008178306841717421,"16":0.21706349993093554,"17":-0.1695533297851611,"18":-0.07246132807527045,"19":-0.038027118261013945,"20":-0.029377315932652925,"21":-0.06622698563794735,"22":-0.0922674336298885,"23":-0.05562577439963162,"24":0.13593179419409265,"25":-0.06025062370655315,"26":-0.11037070443445914,"27":-0.0377225358951313,"28":-0.23873715609773827,"29":-0.41816783912739,"30":0.16231345465559566,"31":-0.0784564351026229,"32":-0.1093481461018018,"33":-0.2780989010936882,"34":-0.029172733165798128,"35":0.03173867692092303,"36":0.05530641346973015,"37":-0.1266009500185957,"38":-0.00018186559665208147,"39":0.07742719832146928,"40":0.08068576627998914,"41":0.21190705588286052,"42":-0.3101155956476916,"43":-0.048190726847357646,"44":-0.0015848928934284426,"45":-0.0498516120701611,"46":-0.13878870582125338,"47":-0.04071211907326633,"48":0.011282183323840005,"49":-0.03676125246215429}},{"sx":1,"sy":1,"depth":50,"w":{"0":-0.17077552682963226,"1":0.031485517477592984,"2":-0.12270026122235146,"3":0.23889296672174726,"4":-0.1701893577597645,"5":-0.000590351435691342,"6":0.18772188632249623,"7":0.16465066695766156,"8":0.13122896600011236,"9":-0.096036579553892,"10":-0.15265830868255592,"11":-0.03642218257852023,"12":0.022914905526266526,"13":0.09151919016765935,"14":0.023067388505237454,"15":0.04874587580047465,"16":0.20606544746811187,"17":-0.13020673981577818,"18":-0.07606236020189418,"19":-0.003724143662076991,"20":-0.04300571638770927,"21":-0.027621851298800564,"22":-0.03195833491949017,"23":0.09257198575234538,"24":-0.1680146308707083,"25":0.11141008191592924,"26":0.07655736152134322,"27":0.03315766735368469,"28":0.16368523313840774,"29":-0.08530387129290273,"30":0.137232248431596,"31":-0.01124431737721694,"32":-0.2830825339729584,"33":0.1450036910515341,"34":-0.06489243775401238,"35":0.07834219761877605,"36":0.25881495101400914,"37":-0.07515207953151912,"38":-0.08371493847969841,"39":0.01637260929826594,"40":-0.037930916504935845,"41":-0.0170195929696,"42":0.08749306719934545,"43":-0.16091680414332643,"44":0.03400636640779487,"45":0.0279272617932467,"46":0.04324150391465524,"47":0.22318141026278196,"48":0.04287701736057803,"49":0.2350217604303569}},{"sx":1,"sy":1,"depth":50,"w":{"0":-0.01337299378912999,"1":-0.0021721317087355107,"2":-0.14100623884267297,"3":0.1748648025021348,"4":-0.01786400201226527,"5":0.07535028362363894,"6":0.07797971127883094,"7":0.21558857753613242,"8":-0.07863411927676807,"9":0.0019689420976491115,"10":-0.01751346785582271,"11":0.006660938551729719,"12":0.10313322790519266,"13":-0.04438860548438122,"14":-0.002922633857939176,"15":-0.08316329256688793,"16":0.21117486090869228,"17":0.038951084791615964,"18":-0.11482043589452877,"19":-0.15127397632097125,"20":0.1322298201363207,"21":-0.07501634778264796,"22":-0.1372027994006339,"23":0.04977928935792861,"24":0.07135362987782003,"25":-0.04714801729826948,"26":0.15412409695787274,"27":0.09918566056529575,"28":0.024400548687742312,"29":-0.20392121064257482,"30":0.08791955279723677,"31":-0.06477202402875931,"32":-0.0011813478970742882,"33":-0.08720699242219021,"34":-0.02600697451509707,"35":0.0062797866762284655,"36":0.0814874682645704,"37":-0.03586705291805669,"38":-0.15019115580865017,"39":-0.04452423247778612,"40":0.1550536623180063,"41":0.06473456604138265,"42":-0.23893838781558363,"43":-0.003370092967935702,"44":-0.0250352387870001,"45":-0.10422960561505744,"46":0.08303704452285543,"47":0.22412434627763667,"48":-0.08167478885698502,"49":-0.246650533512374}},{"sx":1,"sy":1,"depth":50,"w":{"0":-0.1040573394915656,"1":-0.18140132471605058,"2":0.18280556731053907,"3":-0.07527696117878822,"4":0.18837088654068232,"5":-0.054104828271925795,"6":0.03317499834475036,"7":-0.0757276340435509,"8":-0.2154421641360634,"9":0.03141705841150245,"10":-0.019153872604133797,"11":0.028422869550471398,"12":-0.10679626080460644,"13":0.06682654135941543,"14":0.03134561818798,"15":0.07203063193694212,"16":-0.04472712666439802,"17":0.12162747106113797,"18":-0.04993152352836421,"19":0.12597529701370616,"20":-0.01762175017618499,"21":0.004131841271679539,"22":-0.0007621434395782791,"23":0.0751776931463527,"24":-0.02417975077982924,"25":-0.20614419978021953,"26":-0.008859453860916631,"27":0.11940341976699524,"28":0.05984531179491472,"29":-0.039452126448904064,"30":-0.15002921158235336,"31":0.045581357842963494,"32":0.142015674363724,"33":-0.11776610363380202,"34":0.2200857378961242,"35":0.053018130203877044,"36":0.0832254119176893,"37":-0.07936589801656231,"38":0.2970559571387493,"39":0.11105070688594681,"40":0.03521566172453678,"41":0.0912055890442324,"42":0.0019406729674641895,"43":0.32141936533756926,"44":0.1654848195551933,"45":0.014910594485734707,"46":0.07572990080686139,"47":-0.054519538531529695,"48":-0.03565069001585257,"49":-0.20513790366209694}},{"sx":1,"sy":1,"depth":50,"w":{"0":-0.05439961262157415,"1":-0.12985145786435787,"2":0.10371363523389251,"3":0.11170792072049819,"4":-0.35093856114847694,"5":-0.0771162281199334,"6":0.10707176244066745,"7":0.4942415507218907,"8":-0.21727763537783767,"9":-0.03825468462891463,"10":0.06267246497861552,"11":0.18597830156784073,"12":0.0072582055858344315,"13":-0.4802032249333482,"14":0.016144454305314436,"15":-0.17110376958778792,"16":0.2552542245522981,"17":0.11101519709909978,"18":0.0034342521826451022,"19":-0.10517377632059241,"20":0.5725456664146646,"21":0.10190049492241018,"22":0.31093646191282404,"23":0.0920643658313216,"24":-0.10172692205688452,"25":0.14234802907856156,"26":-0.2512789603407425,"27":-0.29053054624626096,"28":-0.17274188215300648,"29":0.1921744404362645,"30":0.07001380082154118,"31":-0.006514305530794652,"32":0.6024684356527732,"33":-0.15607078287629275,"34":-0.047465087004291834,"35":0.057331651324154013,"36":-0.003983414274285371,"37":0.5558670783981873,"38":0.10087069214589799,"39":0.1086117920440209,"40":-0.05769838279729901,"41":-0.14281490167199193,"42":-0.2193932895279537,"43":0.36596253550853924,"44":-0.08050070463385997,"45":-0.059245239867611606,"46":0.17092467887881913,"47":0.5317170785325667,"48":-0.008917075801360237,"49":-0.18685188736586636}},{"sx":1,"sy":1,"depth":50,"w":{"0":-0.06399177002432438,"1":0.10428334586743936,"2":-0.13324638532617142,"3":0.24769028783040742,"4":-0.18333615584681412,"5":0.08144072924823154,"6":-0.09956630991278194,"7":0.0389690648281905,"8":-0.215346698704313,"9":0.16122562111873184,"10":-0.10246951565487848,"11":-0.12683027221818885,"12":-0.12341762538923425,"13":0.01263592574410092,"14":0.05713534825829451,"15":0.20864584747235035,"16":-0.15381325585948508,"17":0.07072377187189825,"18":-0.19332726364284966,"19":-0.028739269179867803,"20":-0.038671139047680984,"21":0.04109487696360953,"22":0.08414949145088871,"23":-0.07522795795884082,"24":0.014529310500668913,"25":0.11350453794385586,"26":-0.08611092799130342,"27":0.09995012990986901,"28":-0.11293490301358416,"29":-0.05766584453420158,"30":-0.03490484071675341,"31":0.17613919731915156,"32":0.1484840100766004,"33":-0.04797515087742693,"34":0.30050495050794357,"35":-0.13406903125430478,"36":0.05713221238010601,"37":0.16962815754469743,"38":0.012723572785206028,"39":0.07166554070386953,"40":0.20306381893443187,"41":-0.04637240552169841,"42":0.05078984560094811,"43":-0.19073316538350907,"44":-0.1158847268627166,"45":0.015615370449407615,"46":-0.04947342657413662,"47":-0.0004411126607595579,"48":-0.011470818261369479,"49":-0.15098146113021005}},{"sx":1,"sy":1,"depth":50,"w":{"0":0.21397985984686135,"1":0.059210906620383266,"2":-0.3299972149194705,"3":0.0782561197761427,"4":0.04352193905524269,"5":-0.1049423506312111,"6":-0.2707174213106705,"7":0.05152914199315111,"8":0.053107696408480606,"9":0.11679902899188854,"10":-0.12142004167558533,"11":-0.14846148572477208,"12":0.11613969291592299,"13":-0.13631334691321761,"14":-0.006030013366460398,"15":0.06968858679055405,"16":-0.08696162994960491,"17":-0.07455429728608033,"18":-0.04245009920615374,"19":-0.24586707396696425,"20":-0.1659775930469615,"21":0.04827094917725975,"22":-0.3163132608530388,"23":0.06590876775255826,"24":0.1869000211964588,"25":-0.020174219955704804,"26":-0.033976837953297055,"27":-0.07153941943181637,"28":0.1932209885872347,"29":-0.0500852777664018,"30":-0.08255509272514236,"31":0.030018849219936344,"32":-0.08929110124236986,"33":-0.04251345343366043,"34":-0.1493048399723574,"35":0.2802593408754007,"36":0.06798167389515186,"37":-0.024025843398908637,"38":-0.1895726888645689,"39":-0.09280195072651004,"40":-0.055054301253465845,"41":0.00870024114584191,"42":-0.21269641479721696,"43":-0.04304687050111803,"44":0.17022706448760144,"45":0.04500689836521113,"46":-0.2407808133127947,"47":-0.21942672579943281,"48":-0.009593749025443334,"49":0.19460416690695698}},{"sx":1,"sy":1,"depth":50,"w":{"0":0.07148539617133766,"1":-0.1012378990114565,"2":0.04386091794625831,"3":0.0008199462771672469,"4":-0.4331619777812359,"5":-0.009389362803416085,"6":0.18589015257461203,"7":-0.15018707272257004,"8":-0.1427362181199974,"9":-0.08029853075637515,"10":0.22112747798370444,"11":0.4362007248876465,"12":-0.15382916168587593,"13":0.04350120583671622,"14":-0.06406823169375914,"15":-0.04269801440031749,"16":-0.16542258877301247,"17":0.2457440898512019,"18":0.1367299706152061,"19":-0.0032806524043493997,"20":0.21098891384939875,"21":-0.08260177337685919,"22":-0.011602903981760717,"23":-0.21322846889502547,"24":0.10817190658873067,"25":-0.005300599641556319,"26":0.029940416110060895,"27":-0.11752779158790574,"28":0.010093535708833784,"29":-0.1599867546632644,"30":0.24736807607675584,"31":-0.11052728854703055,"32":0.25483694284360797,"33":-0.22162626446763922,"34":0.2252710968006355,"35":-0.12439022101823848,"36":0.02829813024496014,"37":-0.04483166372594781,"38":0.11084891405529092,"39":-0.20282694243748756,"40":-0.16074437020859428,"41":0.2036929950674691,"42":0.0627616905431542,"43":0.33536675588867926,"44":-0.028085670718770005,"45":0.14802737688654205,"46":-0.0035312570424921187,"47":0.2885395415681323,"48":0.022075840906209645,"49":-0.07871209833876112}},{"sx":1,"sy":1,"depth":50,"w":{"0":-0.10582649325121342,"1":-0.0009948690642738152,"2":-0.0000943728867825824,"3":-0.10961171708284533,"4":0.15138710459958168,"5":-0.18605635333185216,"6":-0.01910865043529714,"7":-0.13974103663604057,"8":0.01813477898952031,"9":-0.3040801049658097,"10":-0.08850151962545379,"11":-0.181114287763592,"12":-0.07102527207801673,"13":-0.0036365751449599732,"14":0.06280471505956559,"15":-0.20666001359395772,"16":0.21866425638796352,"17":-0.041791340106561645,"18":-0.038947414633224944,"19":0.14243757563885084,"20":-0.03554542380630737,"21":-0.15848311316157745,"22":0.14254074449527862,"23":-0.034644659368750996,"24":0.013279179134041369,"25":0.17577841413653753,"26":0.03517198244364255,"27":0.1286261805970549,"28":0.04725357879387526,"29":-0.15515143797865685,"30":0.004706552787432745,"31":0.2964259485056379,"32":-0.007229293908409848,"33":0.10537752572238651,"34":0.05032712850481161,"35":-0.0017399648493645564,"36":-0.0836966160394338,"37":0.003110875047824707,"38":-0.08128806414246861,"39":-0.04231910012477765,"40":-0.07200809237253762,"41":0.09608311470581854,"42":0.18556769071241005,"43":-0.19179607340078428,"44":0.24604908213705953,"45":0.08922601117733263,"46":0.179715992152075,"47":-0.08660512549389807,"48":0.06182210431651799,"49":0.0735856205585409}},{"sx":1,"sy":1,"depth":50,"w":{"0":0.12891467939714002,"1":0.06784007697531588,"2":-0.13544300322917438,"3":-0.04586171159668876,"4":0.13869121787896094,"5":0.19506701714444177,"6":0.08104220774704302,"7":0.04415573150075929,"8":-0.0016733019570335135,"9":-0.06342228986014961,"10":-0.07482139275150025,"11":-0.04771162693924954,"12":-0.04105824633825736,"13":0.1487103436307354,"14":-0.1893863508919877,"15":-0.041306562693496376,"16":0.14433912802686882,"17":0.0014753231630365645,"18":0.136769858463089,"19":0.057942306887032544,"20":-0.06780557702532683,"21":-0.04551090967603618,"22":-0.6292118321195559,"23":-0.2962250558056892,"24":0.04335123569763567,"25":0.12304038554995463,"26":0.11318192839056349,"27":0.07549305614938652,"28":0.055965701599219535,"29":0.21950307123132357,"30":-0.03703625543939535,"31":0.11394843600112159,"32":0.03045322352187225,"33":0.015730912752735846,"34":0.060124398098655704,"35":-0.1089083258238473,"36":0.2567749830586786,"37":0.13653509097197575,"38":-0.10426723187388952,"39":-0.25709641681882245,"40":-0.1468637866843385,"41":-0.12689666812068287,"42":0.21944964409112971,"43":-0.1521003511468852,"44":-0.11992211763933744,"45":0.03828712993437287,"46":-0.1285099266505711,"47":0.21467529204462804,"48":-0.09394628061048692,"49":0.004853262698441476}},{"sx":1,"sy":1,"depth":50,"w":{"0":-0.006627600329847931,"1":-0.1408866572614317,"2":0.0535401514548021,"3":-0.21362738005903475,"4":0.15607089330121152,"5":-0.059344695668753514,"6":-0.035323442831830976,"7":0.018909176227187505,"8":-0.1495462514414,"9":0.2275423163189943,"10":0.08885437161117785,"11":-0.17341686504109802,"12":-0.12239894976665182,"13":-0.09029440571850593,"14":-0.033655948326484025,"15":0.11510271951095821,"16":-0.19596299124812389,"17":0.13593123524408351,"18":0.19305460348111142,"19":-0.053982910897309014,"20":-0.15929449337734417,"21":-0.06602971774860346,"22":0.04036084147757002,"23":0.07041808891687755,"24":0.012214504048729934,"25":0.15426712727975112,"26":-0.09318235112587046,"27":-0.07427279274281086,"28":-0.026815116868859738,"29":-0.027973223286544377,"30":0.24966520679909462,"31":0.09768367714908582,"32":0.20835186045500295,"33":0.08910575321312514,"34":0.18473083954155095,"35":-0.06883099548539656,"36":-0.08752772165750347,"37":0.04431039746636184,"38":0.16065468967765897,"39":-0.008600510321443221,"40":0.012241723827458324,"41":-0.4033875040337266,"42":-0.05995459516407374,"43":0.05422601043201637,"44":-0.12402189156748836,"45":-0.05194546501373849,"46":-0.18989918635453829,"47":-0.0028293515078173406,"48":-0.13072452476372087,"49":-0.21014769229736385}},{"sx":1,"sy":1,"depth":50,"w":{"0":0.029536312727927037,"1":-0.1610238350661281,"2":-0.02375582021761174,"3":-0.1028740984280021,"4":-0.13578882208262108,"5":-0.0899149251417393,"6":0.32127985161836164,"7":-0.15023770162338276,"8":0.07742127061200639,"9":0.2829341370620204,"10":-0.01680319579481781,"11":0.061287528472995574,"12":-0.25196541870363126,"13":-0.33810995723285997,"14":0.14719275414913194,"15":-0.004313667000843864,"16":-0.02822117600340928,"17":-0.1943322929233163,"18":-0.34937736529629315,"19":0.03216302553804067,"20":0.33288551602633965,"21":0.06183296367574077,"22":0.23904254717545498,"23":-0.13661643646265972,"24":-0.06981565127639604,"25":-0.047161332670994115,"26":0.12885169489508763,"27":0.2888511229393849,"28":0.00010218238641332588,"29":-0.2889028861496122,"30":0.061174678642225165,"31":-0.15235106479499172,"32":0.25516008239891175,"33":-0.42775551443578674,"34":0.3449169833419771,"35":0.33232090642620327,"36":-0.08756299256200512,"37":0.22607946467873374,"38":0.05122071941998685,"39":-0.18175082418890573,"40":0.030420749132444167,"41":0.1049394485464814,"42":-0.2602602064291676,"43":-0.1363001535559887,"44":0.06789495651515497,"45":-0.005368015717505632,"46":0.16404786116161246,"47":0.37235592322272065,"48":-0.09076774417001862,"49":0.14757857981865113}},{"sx":1,"sy":1,"depth":50,"w":{"0":0.07850440389945743,"1":0.046934509776265766,"2":0.21028681651892953,"3":0.15007735070010303,"4":-0.329375060785665,"5":-0.07586999361788696,"6":-0.04571735183426734,"7":-0.005151300393140167,"8":0.1048803775744044,"9":0.08533810197604925,"10":0.38618565621112094,"11":0.20909018890955777,"12":0.2691881517741242,"13":0.35714006036328305,"14":-0.027749275876271306,"15":-0.14551502768998928,"16":0.34412113881365597,"17":-0.1306475625749639,"18":0.08962419660116007,"19":0.17087201027660934,"20":-0.15283120556464383,"21":0.15324432420461773,"22":0.32187300965792587,"23":-0.07713598333817329,"24":0.13295594376524106,"25":0.03872551298641907,"26":-0.18356168210763696,"27":-0.1869734506354288,"28":-0.0505084612786512,"29":-0.12391261577745115,"30":0.30790404332034277,"31":-0.25760102903576976,"32":-0.04136640061175534,"33":0.13824395164029446,"34":-0.16802270798274668,"35":-0.15612390574132912,"36":-0.13911033766846417,"37":0.11265218948997613,"38":0.2944179277256816,"39":0.0308685201348599,"40":-0.15920960248313779,"41":0.3533568406431271,"42":-0.0711783449394683,"43":0.14575730637802164,"44":0.13357385235749353,"45":-0.05919245543416893,"46":0.2846210580106702,"47":-0.013929963995310005,"48":-0.16881314636496206,"49":0.14501289920700544}},{"sx":1,"sy":1,"depth":50,"w":{"0":0.01591877482873229,"1":0.011190698575117692,"2":0.12474452080036075,"3":-0.08812129192353377,"4":-0.07169747954363377,"5":-0.07454223041305329,"6":0.14224416043845997,"7":0.23460120416183836,"8":-0.08247035014883428,"9":0.20481637611610318,"10":-0.025336560089611455,"11":0.09811126845191533,"12":-0.043544110567592616,"13":-0.06398208365533978,"14":-0.019977388800836233,"15":-0.03319267759459667,"16":-0.2794842659478034,"17":-0.1347046553780124,"18":-0.01586075176274061,"19":0.10104363010685881,"20":-0.3020546309254589,"21":0.023733767154504794,"22":-0.011079754324799773,"23":0.12473116568775117,"24":0.04151818525173988,"25":0.0687000796496316,"26":-0.10963948860727499,"27":0.253470325123273,"28":0.06690471039406526,"29":0.23420392930567407,"30":0.036498721476222,"31":0.045752721409288204,"32":-0.18907846613479953,"33":0.06588874780260098,"34":-0.021029268401569982,"35":-0.24310186914154885,"36":0.05222071605986863,"37":-0.014724935202102595,"38":0.055286945444823134,"39":0.15388089070891361,"40":-0.22242944774818332,"41":-0.1314201857010795,"42":0.11172229711499793,"43":-0.09106140254042995,"44":0.062387438140365736,"45":0.03527323204500332,"46":-0.000260988551023344,"47":0.23243373825573657,"48":0.044725018188098674,"49":0.008455884024659202}},{"sx":1,"sy":1,"depth":50,"w":{"0":0.07299101057684686,"1":-0.0005684474895446928,"2":0.15271341247702885,"3":0.15474464248855052,"4":0.46119543924385586,"5":0.5134013693922905,"6":-0.026074638545250488,"7":0.013864842348404797,"8":-0.005010322974455132,"9":-0.1578893562331095,"10":0.06521719218125185,"11":-0.13224280998873547,"12":0.02353594530918687,"13":-0.22594057053202868,"14":0.13602472357740156,"15":-0.10819681401485454,"16":0.11541821025793111,"17":0.04933185492115359,"18":0.04991135056074484,"19":-0.09958542991034924,"20":-0.7354231527201999,"21":0.06274897324865655,"22":-0.260740690280263,"23":-0.22990238927107295,"24":-0.24816522590298906,"25":0.02005186661979578,"26":0.10656786128158344,"27":-0.08467249964425654,"28":-0.09631859164561257,"29":0.2402141780325456,"30":0.5796163909650044,"31":0.027403171559984053,"32":0.42212694183446886,"33":0.04224305146511074,"34":-0.13658535248719667,"35":-0.3514870670675392,"36":-0.09856889882509191,"37":0.2613687385322948,"38":0.07802990256311315,"39":0.06228047902614346,"40":0.10793918159599906,"41":-0.2272521774450545,"42":0.2760671979478064,"43":0.18670369061503342,"44":0.2301502523736424,"45":0.1286055667788721,"46":0.17804872782750633,"47":-0.7305217975648394,"48":0.19152752000903953,"49":-0.08731206734499383}},{"sx":1,"sy":1,"depth":50,"w":{"0":0.24716631772322636,"1":0.2753861732744602,"2":-0.04895166423491721,"3":-0.14554259333199968,"4":0.39709783182488023,"5":-0.012627554038718774,"6":0.26467347609011327,"7":0.06793467608360555,"8":0.15580688371912244,"9":-0.12823522952063124,"10":-0.20985390536795642,"11":-0.05786624529541267,"12":0.2353528203608803,"13":0.2816852135261052,"14":0.2151407035812478,"15":0.1572993671281148,"16":0.2795751419602991,"17":-0.024401547530598637,"18":0.15860677143978522,"19":0.0031491203632689835,"20":-0.06385643764339835,"21":-0.004141302193336392,"22":-0.45187545608071994,"23":-0.02809535956313382,"24":0.2210359459376172,"25":0.04812671120357678,"26":-0.09167347626701394,"27":0.059057084018925975,"28":0.11139378446025587,"29":-0.21733721808650486,"30":0.1558845028974968,"31":-0.0653362192145175,"32":-0.26381794732010455,"33":0.2392258111389571,"34":-0.10207600483996769,"35":-0.19323456576153694,"36":-0.12259127479416619,"37":-0.14329686212142467,"38":-0.3062350994454822,"39":0.10872701759207919,"40":-0.019815323533017407,"41":0.375235650243227,"42":0.21374557159886315,"43":-0.21170217082770848,"44":0.1955918665404045,"45":0.11456340112866026,"46":-0.41025852105310784,"47":0.06811372118903944,"48":0.0008160793512739527,"49":-0.03128601087578707}},{"sx":1,"sy":1,"depth":50,"w":{"0":-0.0709557409393684,"1":-0.09366550637480651,"2":-0.13991356922144688,"3":-0.06440997374038722,"4":0.11316040785229185,"5":-0.12589489678142338,"6":-0.03377650785268288,"7":0.1119040275739265,"8":-0.11040446201210367,"9":0.022952027817214244,"10":0.07996765596412642,"11":0.07084637327023316,"12":-0.03222562400180032,"13":0.12217549357222872,"14":0.18557550762459898,"15":-0.05238446655739839,"16":-0.14845474641625922,"17":-0.028770683785546192,"18":-0.1983352564067074,"19":-0.24295734312690723,"20":0.052426347473675576,"21":-0.04552060047898175,"22":0.04145127687769895,"23":-0.12248476978890428,"24":-0.11003138287860403,"25":-0.12640863044858439,"26":-0.04128414959898857,"27":0.0402593182659593,"28":0.1341008780135462,"29":0.056553711632322555,"30":-0.22053664461885225,"31":-0.06342303682530963,"32":0.13271557161911124,"33":-0.19157646232292622,"34":0.12578571994416118,"35":-0.11127533907940113,"36":0.08094191966776877,"37":0.21926099175346636,"38":-0.04791957415863933,"39":0.1200359566475202,"40":0.22199993802545245,"41":0.08555958846705598,"42":-0.047308789132903796,"43":-0.06046999481692558,"44":-0.08810331316886251,"45":-0.06424070653409383,"46":0.07559263326816425,"47":0.2523260434624571,"48":-0.2941563640372109,"49":0.06035593146660914}},{"sx":1,"sy":1,"depth":50,"w":{"0":-0.3197791937215796,"1":-0.3759740158851786,"2":0.29776906592984265,"3":-0.19569461480932818,"4":-0.044464228935806614,"5":-0.3902288420539453,"6":0.15752871992986162,"7":0.04771747746286051,"8":0.15656352256337205,"9":-0.2014369991600694,"10":0.3769280940012802,"11":0.2419329297391401,"12":0.24433412188389694,"13":0.4611652571257521,"14":0.02471146939746858,"15":-0.15978060456556184,"16":0.5033007243559107,"17":0.356537743627865,"18":-0.17044799815732162,"19":0.2103210474372294,"20":-0.08611188549096142,"21":0.33584627280399865,"22":0.3143379692768836,"23":0.08756975768197638,"24":0.22056486279969992,"25":-0.03115335118145902,"26":-0.0973442517614081,"27":-0.12194236258427754,"28":-0.018416329700347938,"29":0.2825918823208023,"30":0.31583567272632157,"31":0.08007387129810771,"32":0.18865539895151007,"33":0.013922106831692494,"34":-1.068587216848247,"35":-0.2490990501528016,"36":0.306195281020471,"37":0.6180140587189151,"38":0.1826160958952437,"39":-0.20632486768956615,"40":-0.39988249291795425,"41":-0.00835333853445894,"42":0.5389388736641428,"43":0.4587470634291081,"44":-0.5640789864892446,"45":0.12281755580752339,"46":0.3152789765129443,"47":0.04063612966747589,"48":-0.2435039648296254,"49":0.4138513119446834}},{"sx":1,"sy":1,"depth":50,"w":{"0":0.07311735437173049,"1":-0.14600414830556183,"2":0.017310574375001216,"3":-0.009184204317276432,"4":-0.15223628376958026,"5":0.03152478084296623,"6":-0.06192009186840897,"7":0.18976020360519918,"8":-0.12650903506955744,"9":0.31342804965770055,"10":-0.38131488616832404,"11":0.09812500836066913,"12":-0.07261931623509472,"13":-0.12513618115006375,"14":0.08169427288954428,"15":-0.06779337246178849,"16":-0.17297063880561656,"17":-0.1683187424261235,"18":-0.009070913825941655,"19":-0.14070315531508493,"20":0.32279823111011946,"21":-0.25298224072717607,"22":0.0002663298640060456,"23":0.08402256046538245,"24":-0.04264686288942111,"25":0.1733466990004547,"26":0.0845647542609712,"27":-0.04119842668588941,"28":-0.13122906807423587,"29":0.18315841444429323,"30":-0.033699891601649,"31":-0.006677006999661319,"32":0.19100585150559174,"33":-0.13271438536926813,"34":0.3751627918491343,"35":0.2784617039152953,"36":-0.0397315882672923,"37":0.05211201553261633,"38":-0.012266846899183443,"39":0.11127274226007564,"40":0.2617758802917424,"41":-0.008795434604265616,"42":0.086599372290119,"43":0.042803071514570946,"44":-0.07299443547974868,"45":-0.04184219400554986,"46":-0.10289933473798742,"47":0.4292432192477685,"48":0.08336319942686322,"49":-0.17978215465450564}},{"sx":1,"sy":1,"depth":50,"w":{"0":-0.02911174531123393,"1":-0.04973465648201087,"2":0.00775277834123317,"3":-0.05032636011871776,"4":1.003275230791826,"5":0.131434075717424,"6":-0.15884003333423302,"7":0.3261089470054275,"8":-0.32182421748981765,"9":-0.011945653541651016,"10":0.13234494161887522,"11":-0.12693544567390877,"12":-0.4231155443095167,"13":0.02922027697216964,"14":0.03733552796768335,"15":-0.23985918019784908,"16":0.41613369684198553,"17":0.09283683297971732,"18":-0.35662708160200846,"19":-0.18346164419541192,"20":-0.098771380011957,"21":0.030169055670700853,"22":-0.06422473413986345,"23":-0.0747485959035929,"24":0.026122986371627847,"25":-0.014090974258108867,"26":-0.04822012615248578,"27":-0.35930173030857787,"28":0.058772166918448596,"29":0.28493266586534355,"30":0.7587512288661857,"31":-0.03266003780302584,"32":-0.00998322224333602,"33":-0.20557439622566648,"34":-0.3002619100447126,"35":-0.0008693801885747843,"36":-0.10149027792388278,"37":0.01427523082114185,"38":0.4164376636682768,"39":0.04872304233905084,"40":-0.19858836591416934,"41":-0.39531030086848185,"42":0.15542978340994704,"43":0.1193610371785682,"44":0.2381520396026905,"45":-0.04257906140118025,"46":0.045916534926592624,"47":-0.3778740493199781,"48":0.0682935460523529,"49":-0.28828215375833166}},{"sx":1,"sy":1,"depth":50,"w":{"0":-0.014901034385022454,"1":-0.27604120782064406,"2":0.0942768630967413,"3":0.25168183873642314,"4":-0.25140998265446046,"5":0.02122836760053959,"6":0.06996896842012029,"7":-0.1910172507211937,"8":-0.14123682799741621,"9":0.22347617238710216,"10":-0.07784642072781504,"11":0.03706818674307435,"12":0.07971731558709112,"13":0.030060346208933362,"14":-0.05903214290228046,"15":-0.09757505722956288,"16":-0.16553448045242114,"17":0.021850477449947857,"18":0.10701942049862043,"19":0.10993673812749054,"20":0.015269787274219104,"21":-0.06682529542530133,"22":-0.172441464637879,"23":0.18714499409662624,"24":-0.0013176100649381773,"25":-0.09275028928436273,"26":0.07364646579630586,"27":0.11506838501990553,"28":-0.002065467663240734,"29":0.19398539797367187,"30":-0.3198435547297799,"31":-0.03584970651352802,"32":-0.034164450471161824,"33":-0.08534790145842115,"34":0.14816747194172572,"35":0.17314522764632864,"36":-0.08375241881633666,"37":0.04537055690200182,"38":0.048970247000760636,"39":0.04986820932001825,"40":-0.015203334987279597,"41":-0.0487516468980154,"42":-0.16696143645287825,"43":0.0504615423353955,"44":-0.004802536901879309,"45":-0.024046569250732595,"46":0.07951609385013687,"47":0.2530540595359303,"48":0.07468597453151442,"49":-0.029121653819436977}},{"sx":1,"sy":1,"depth":50,"w":{"0":-0.24497343624508677,"1":0.042426088103438966,"2":0.04756571836326027,"3":0.05739379876355933,"4":-0.05278780903996708,"5":-0.10997310164010302,"6":-0.19782406245392242,"7":-0.08528744611673965,"8":-0.11881649729554576,"9":0.039228605241074174,"10":0.19119799750865243,"11":-0.07606543292781129,"12":-0.13097259372669987,"13":0.20362063714239767,"14":-0.08562186311298939,"15":0.13074811324467545,"16":-0.02399105515776012,"17":-0.16642702134127546,"18":0.20142472556253135,"19":0.05193573255584647,"20":-0.06633436993393638,"21":0.04935509650410437,"22":-0.08014812059007476,"23":0.11517261691260226,"24":0.059973079683519025,"25":0.08099912011292122,"26":-0.11364877456214816,"27":0.03178119219371717,"28":-0.11727250849364886,"29":-0.0911855503187232,"30":-0.01888857522600642,"31":-0.16493560526764978,"32":0.20857047952973504,"33":-0.06280117608782518,"34":-0.2225392402787607,"35":-0.16583902564016256,"36":-0.06615977151950402,"37":-0.08325570524528562,"38":-0.07365438592631811,"39":-0.0004378108008562223,"40":0.01983814216219763,"41":-0.03603388009942556,"42":-0.0193682243705155,"43":-0.00477722364557561,"44":-0.03602787330049604,"45":0.13394051843423518,"46":0.020370005303514266,"47":-0.02856653879433852,"48":0.07630998193600634,"49":-0.12448422504364295}},{"sx":1,"sy":1,"depth":50,"w":{"0":-0.09373695208534397,"1":0.001636808920131088,"2":0.07705053036293674,"3":-0.06635594552055073,"4":-0.029527807174497298,"5":0.13800180672549997,"6":-0.12060961802365332,"7":0.31562637527631365,"8":-0.003369626054804912,"9":0.21899758182852636,"10":-0.14267907873213762,"11":-0.003704507720902793,"12":-0.15737080184478877,"13":-0.407244589142964,"14":-0.07937895706911471,"15":0.1496161375417896,"16":0.20644941996034147,"17":-0.12668360683298757,"18":0.37373029467416835,"19":-0.01545431129471444,"20":0.44347126175729995,"21":-0.12356064512466815,"22":0.33326271085459686,"23":0.1357989442557106,"24":0.07535558800202836,"25":-0.14475504998677588,"26":-0.015335650971207959,"27":-0.03759889374620304,"28":0.06803524280965652,"29":-0.046723531727333026,"30":0.31183726293288483,"31":-0.016917119522983613,"32":-0.10930232357987778,"33":-0.40587652340424024,"34":-0.20790729680640002,"35":0.02585533221924929,"36":-0.11400248588721994,"37":-0.09508929845815217,"38":0.09799111708966168,"39":0.09407729573796385,"40":-0.13149785394612998,"41":-0.23011656605366654,"42":0.15131614232767243,"43":0.12395191503831703,"44":-0.08894983253969553,"45":-0.20173016941740118,"46":-0.08625617747524521,"47":-0.11308003573560994,"48":0.2772080625011687,"49":-0.19076913746174126}},{"sx":1,"sy":1,"depth":50,"w":{"0":-0.022548742234670762,"1":0.08829473963827153,"2":-0.08835576652996355,"3":0.04714989882289316,"4":0.11993002498782941,"5":0.01381948453052093,"6":-0.029321158249353774,"7":0.2138057519237667,"8":0.07601242735234667,"9":-0.14042481843596605,"10":-0.06972998182729535,"11":0.08657186931921576,"12":0.29379936088562825,"13":-0.20444169935958312,"14":0.0207139136332733,"15":0.009405953009874955,"16":0.14160745067720032,"17":0.043529473316703045,"18":0.16832655892811207,"19":0.04684746236686674,"20":-0.0071645663892800394,"21":-0.031096048646016675,"22":0.2598694687552201,"23":0.15467718759790416,"24":-0.16092289806201063,"25":-0.0025390409450661523,"26":0.21307877974485978,"27":0.034210103129385494,"28":0.03027230572895039,"29":-0.23153843152556938,"30":-0.007308019421117669,"31":-0.06335663545800854,"32":-0.04864448282327842,"33":-0.18347249017299838,"34":-0.04163136395803745,"35":0.10436153372283813,"36":-0.2672604804475755,"37":0.19142448463760134,"38":-0.14437737364739903,"39":0.001881878664502037,"40":0.07452981138795471,"41":-0.018600575513243144,"42":-0.13962573482401205,"43":-0.10025356701622441,"44":0.05104073663167712,"45":-0.1319850554575864,"46":-0.07302829015335097,"47":-0.1416401928689004,"48":0.08881672895062877,"49":-0.04078926442617439}},{"sx":1,"sy":1,"depth":50,"w":{"0":-0.0652283322220738,"1":0.11684166320713428,"2":-0.09151181882200934,"3":-0.167738984052809,"4":-0.13914296855477565,"5":-0.15324240493511088,"6":0.020592893237054478,"7":-0.1271789047996211,"8":-0.036607555500455635,"9":-0.04259008308495836,"10":-0.22876515056273788,"11":0.08586805156949076,"12":0.012289017274462279,"13":-0.12374111452782965,"14":-0.05949377053524265,"15":-0.06013188100302974,"16":-0.009293659914454282,"17":0.05707396776996555,"18":-0.06936095891501069,"19":-0.03978826692966992,"20":-0.007751320966751395,"21":0.09202126767552746,"22":-0.16722485446701588,"23":0.011507490295876315,"24":0.12545141896118894,"25":0.10352596072944345,"26":-0.018930581956149443,"27":-0.07652614887097671,"28":-0.06384327708264263,"29":-0.0024122409677996806,"30":0.026483764458191183,"31":0.06055876911558885,"32":0.10353350499460869,"33":-0.0660467516300734,"34":0.19435300047032678,"35":0.03026070293934671,"36":-0.17064200505741153,"37":-0.24766311395473198,"38":-0.12262229008206087,"39":-0.18406070828888665,"40":0.048379423097140675,"41":-0.03900626123811507,"42":-0.12237432314456093,"43":-0.027274702327259873,"44":-0.17043019032987888,"45":0.06348786583232341,"46":0.07374589511597092,"47":-0.04486409281401878,"48":0.15044833423612694,"49":-0.06124982616109936}},{"sx":1,"sy":1,"depth":50,"w":{"0":-0.12377747925026807,"1":-0.15529384788586428,"2":0.09783409226458713,"3":0.11465392027864615,"4":-0.11981360464963481,"5":0.10332604993000098,"6":0.05912764799304775,"7":-0.04509204519310998,"8":0.08541491524962291,"9":0.018443708927701655,"10":-0.08629797202556998,"11":0.06224346272994793,"12":0.06148983296070468,"13":0.022080550543660017,"14":0.066171968704491,"15":-0.05815936725167998,"16":-0.2128158653605126,"17":-0.273815164506631,"18":0.016010188215160735,"19":0.13452321337925083,"20":0.07682092948435017,"21":0.24397774462483263,"22":-0.10114555162305468,"23":0.07124943603856138,"24":-0.056969671023288725,"25":-0.06240076988068052,"26":-0.003622845315393754,"27":0.04079640582087029,"28":-0.00914226756792544,"29":0.16339129994953752,"30":0.10581652895722332,"31":-0.08194377541617623,"32":0.10449884762915895,"33":-0.006168591271676281,"34":-0.21425537990994992,"35":-0.0942603121927318,"36":0.27254191677598055,"37":-0.0754093907009677,"38":-0.12497415101270291,"39":-0.023877615753922315,"40":0.0270196194782225,"41":-0.12981937100441474,"42":0.20140880085578547,"43":0.0016346930914648522,"44":-0.032096235631106154,"45":-0.07893880741741773,"46":-0.024202766340056265,"47":-0.08368780001405005,"48":0.048646552188236894,"49":-0.08739805175527858}},{"sx":1,"sy":1,"depth":50,"w":{"0":-0.24062484444272597,"1":-0.09742461700854055,"2":-0.04644009096856871,"3":-0.013925681628816267,"4":-0.07324822263986204,"5":-0.17205949972286744,"6":-0.057168832195586376,"7":0.10666478219183263,"8":0.0625901736155482,"9":-0.2539782700464199,"10":0.19942810548985734,"11":-0.06916811483803642,"12":0.3106383908932918,"13":0.08601854009244522,"14":-0.08035034698050231,"15":-0.2554777782842231,"16":0.12731967691451124,"17":-0.07199716471451713,"18":-0.05165529609528576,"19":0.05576055226079246,"20":0.19384455108443938,"21":0.12856396749493793,"22":0.06592672213556797,"23":-0.06541407098145205,"24":0.07871032986467022,"25":-0.21119759593455012,"26":0.09052551024401824,"27":0.15077145975372258,"28":0.09106406000938222,"29":0.2099428431688963,"30":-0.09392825121911641,"31":-0.19723546498714442,"32":-0.07553534291203216,"33":0.02610320585490006,"34":-0.5050627223421384,"35":-0.021666171316149552,"36":0.004446495738163337,"37":0.04288852851402799,"38":-0.13585546655357686,"39":-0.018480188418193124,"40":-0.0576006543259485,"41":0.18149095720171446,"42":-0.06631794044096885,"43":-0.025389626723433496,"44":0.12174034652233698,"45":-0.09810716780133628,"46":0.14194309603815258,"47":0.0671592554920523,"48":0.10719588449746138,"49":0.14166001196603814}},{"sx":1,"sy":1,"depth":50,"w":{"0":-0.01899868992446968,"1":-0.0019612598107563097,"2":0.011047913672394358,"3":-0.36428837234234007,"4":-0.48195007180357546,"5":-0.45262168862902996,"6":-0.0016886386247552919,"7":-0.036169296791664196,"8":-0.36932035266109664,"9":0.16616215525976177,"10":0.0866023868902059,"11":-0.04761136123022748,"12":-0.08489931909113702,"13":-0.05665932022992649,"14":-0.305380957827855,"15":-0.16849257448352775,"16":-0.08309194812824272,"17":-0.23134059338354793,"18":-0.020272653685638173,"19":0.16183369629176933,"20":0.6441030728907688,"21":-0.3442716363776139,"22":0.633548999854096,"23":-0.08492625474327163,"24":-0.15449711939237626,"25":-0.003182427010527361,"26":-0.17646652132770152,"27":0.33796216662562467,"28":0.2511375562415507,"29":0.054908133850722365,"30":-0.4167127132416268,"31":-0.09478872813336667,"32":-0.1233053585460266,"33":0.11987251704053957,"34":0.016677503420449723,"35":-0.03467818562087434,"36":0.047715041285398725,"37":0.46655100984916326,"38":0.09022367791785561,"39":-0.034113332313110346,"40":-0.001053292104027154,"41":0.3072124573791767,"42":0.021643746315019047,"43":0.04705495952238273,"44":0.09734265382620645,"45":-0.15050709917309588,"46":0.13174865513262737,"47":0.7904818001084596,"48":-0.2564771927110289,"49":-0.20785533741996015}},{"sx":1,"sy":1,"depth":50,"w":{"0":-0.0799443400508797,"1":-0.07300470826361968,"2":-0.014488069079963332,"3":0.10318965459076844,"4":-0.0005081518211980998,"5":0.09965964008327778,"6":-0.28359235016198703,"7":-0.10161443690415654,"8":0.10298339501352545,"9":0.19748074024724138,"10":-0.06747909827545506,"11":0.0392931771006122,"12":0.12116101695396582,"13":-0.11585901262099574,"14":-0.32988783901638535,"15":-0.09620659261618997,"16":-0.0465481739474806,"17":0.060913929378466944,"18":0.08155470726006321,"19":-0.0280058701248279,"20":0.029164490528264225,"21":0.024612000496261173,"22":-0.19420553812376248,"23":0.10447587351584144,"24":-0.08355972829665269,"25":0.035673605158360246,"26":-0.3039501351830947,"27":0.22752293563635664,"28":-0.17413301479327253,"29":-0.057549740376341633,"30":0.3721467450214723,"31":0.29417492207752677,"32":-0.0295742269838988,"33":-0.1685173838216858,"34":-0.24067792369204305,"35":0.15468392104990622,"36":-0.011096861408339818,"37":-0.11272504338065262,"38":0.1821925335121253,"39":0.1881658607281372,"40":0.11071180895243339,"41":-0.07433010105013625,"42":0.328651606380518,"43":-0.14131302337344184,"44":0.061619695557909686,"45":0.08969180045075592,"46":0.06398116473670772,"47":0.024459968236462914,"48":-0.19474692471553764,"49":-0.21692462678336752}},{"sx":1,"sy":1,"depth":50,"w":{"0":-0.06952716988912948,"1":0.12170496891726303,"2":-0.1485577066165661,"3":-0.04164873112580601,"4":0.006967950340424303,"5":-0.10529889869917924,"6":-0.056115718680293046,"7":-0.015202575879041166,"8":-0.06350440359823675,"9":-0.020944856688546166,"10":0.03810591291105556,"11":-0.0987745919763941,"12":-0.007179564138518701,"13":-0.012584507971863767,"14":-0.1811348466246625,"15":-0.19957560284972273,"16":-0.07834750554018456,"17":0.13178885974496962,"18":0.059838761937252814,"19":0.11041688156421654,"20":0.05081592554835846,"21":-0.016609094772889674,"22":0.0413157794010269,"23":0.054801597946283705,"24":-0.035615525525015256,"25":0.06132522077317871,"26":-0.0891251400621533,"27":0.045917413304027245,"28":0.21233943624056914,"29":-0.07298852910692083,"30":-0.06860915589981267,"31":-0.13908040315969916,"32":0.047526350668229356,"33":-0.20480563205807148,"34":0.026203698294507086,"35":0.007883843926845347,"36":-0.03677165555525479,"37":-0.06886717757125986,"38":-0.09392697446400343,"39":-0.14584500884908816,"40":-0.06315277037242545,"41":-0.031066955200369124,"42":-0.0604129204894246,"43":-0.056976210342754664,"44":-0.04318160946626253,"45":-0.1241190980285518,"46":0.1949794136820201,"47":-0.05493518143903995,"48":0.07295133555938335,"49":-0.2055796957388637}},{"sx":1,"sy":1,"depth":50,"w":{"0":-0.055650243980258286,"1":0.14856843770830735,"2":0.005887040615847769,"3":-0.06424554812325262,"4":-0.171653012810061,"5":0.12072819870738474,"6":0.23698454817702594,"7":-0.2966984731245272,"8":0.201434972122196,"9":-0.4862133087730423,"10":0.16415246462002892,"11":0.14651782768273708,"12":-0.08212175336023551,"13":0.4932850948347031,"14":0.051060493918409465,"15":-0.08108510563723101,"16":0.20739050946430035,"17":0.2135103512441097,"18":0.00021267001525267364,"19":-0.12678486835371855,"20":-0.163038834216612,"21":0.01591341763695372,"22":0.012786063022079526,"23":-0.029205871869285065,"24":-0.10009795159177194,"25":0.15464155933330676,"26":-0.4254271011516774,"27":0.1267838922421059,"28":0.2199016316827606,"29":-0.0028434647394030123,"30":0.6438531836622176,"31":-0.23075952299158545,"32":0.039055975083585145,"33":0.37794295640754766,"34":-0.31642359617252397,"35":-0.1222639798756648,"36":0.07473124933976588,"37":0.0479355955662342,"38":-0.1309791543189185,"39":0.0012306744771447466,"40":0.08768970819518006,"41":0.19886929393795866,"42":0.2562061919703857,"43":-0.06441580892011445,"44":0.10897569722031954,"45":-0.0464544405759441,"46":-0.3135635747669631,"47":-0.27597137195422794,"48":-0.009549855743042568,"49":-0.1350326718245932}},{"sx":1,"sy":1,"depth":50,"w":{"0":0.09144580562207026,"1":-0.02894096633537897,"2":-0.12543868350858992,"3":0.003625977851860873,"4":0.24447929610931812,"5":-0.16759045880576953,"6":-0.02489437665512077,"7":0.12043522839228861,"8":-0.1098418629898284,"9":0.15141746297765918,"10":-0.029317987760228,"11":-0.22263086561938436,"12":-0.10752958234412541,"13":-0.2897731148711091,"14":0.05063757201273588,"15":0.0777705852274896,"16":0.27334261457394676,"17":0.10916440393356903,"18":-0.035340855230949285,"19":-0.018295282942479778,"20":-0.11470217250091116,"21":-0.1574021778259887,"22":0.2508141852879056,"23":-0.12641489851859927,"24":-0.08952807248463246,"25":-0.054941634531130254,"26":-0.12349637727718306,"27":-0.15271164329687598,"28":0.15585421523914003,"29":0.22616256815638675,"30":0.13320096929173575,"31":-0.11961364802917686,"32":-0.04867492353442545,"33":-0.13203906531860127,"34":-0.062342242374800044,"35":0.015906242234487625,"36":-0.25567126023754616,"37":0.03509371618607276,"38":-0.07354359444799007,"39":0.001965726042174096,"40":-0.025500387796825202,"41":0.019652212854996624,"42":-0.026864199938545722,"43":0.01352333851450225,"44":-0.029308839891296245,"45":-0.03147322594293519,"46":0.04482305173546478,"47":0.05042072765529854,"48":0.16069659016709353,"49":-0.015506677318333013}},{"sx":1,"sy":1,"depth":50,"w":{"0":0.07341523871005542,"1":-0.20438414307433694,"2":0.11175208046015607,"3":-0.014080864944560218,"4":0.1338582897792022,"5":-0.021215690602664816,"6":-0.028563248186770744,"7":-0.009113820711865934,"8":-0.2493065812683434,"9":0.1232032642207761,"10":0.011847369568950921,"11":0.0251448254190903,"12":0.07749533246798564,"13":-0.01736033923411862,"14":-0.1236424907049004,"15":0.14190205211843862,"16":-0.19927856281222553,"17":0.09559327974658145,"18":-0.008773319761321733,"19":0.1133360745739858,"20":0.0103734253543583,"21":-0.16022060779045286,"22":0.049197578728681864,"23":0.1657452720999249,"24":0.1379250295979635,"25":-0.058049694188996886,"26":-0.14976102220371618,"27":-0.011835578198905686,"28":0.007743752532631615,"29":0.1803087006518881,"30":0.11293809433806037,"31":0.1709377354253854,"32":0.0707670951957885,"33":-0.06760732310851907,"34":0.24977250697768816,"35":0.04613849638867326,"36":-0.057395852522976104,"37":0.21795010045799235,"38":0.0389941195478286,"39":-0.038432172555873334,"40":-0.0704846549922717,"41":0.08817454746437688,"42":0.06027531464428309,"43":0.0860880970555587,"44":0.06457644709717936,"45":-0.23809830077202337,"46":0.12037615340454556,"47":-0.032112188935383305,"48":-0.013390932525327982,"49":-0.05306124535684013}},{"sx":1,"sy":1,"depth":50,"w":{"0":-0.16104951223818267,"1":-0.11932416279463096,"2":0.24413155909314097,"3":0.02134386003052381,"4":-0.177048069981119,"5":-0.5342341831119144,"6":0.042940916505382766,"7":0.5522466506467835,"8":0.017206116459726157,"9":0.0678181359365752,"10":-0.030331181954973772,"11":0.40602894129669864,"12":0.0850049879031203,"13":-0.33659760190169946,"14":-0.27882475017073727,"15":0.03514669190248426,"16":-0.17787063964821653,"17":-0.07735520223839493,"18":-0.009709728305456595,"19":0.0983485980773288,"20":0.10963886075754511,"21":-0.04687574750040592,"22":0.2074770387395621,"23":-0.07473833265321603,"24":-0.19924112234472582,"25":-0.1379701443829858,"26":-0.05445842747684326,"27":-0.2988058343183702,"28":0.020709895035982764,"29":0.33612477545149466,"30":0.5531458394354277,"31":-0.1580606767400559,"32":-0.17585815729647566,"33":0.006249974804770312,"34":-0.15396658953319567,"35":-0.29170214963756586,"36":-0.17457917853097504,"37":0.6469114348163006,"38":0.14244224562059352,"39":-0.07078120017965125,"40":-0.00894426916412616,"41":0.20724017722305235,"42":0.08388084271228459,"43":-0.10850346933850856,"44":0.09332405590534593,"45":-0.0076547539396131445,"46":0.15601297107434872,"47":0.44494034032557983,"48":0.09854508057707262,"49":-0.6272315790263805}},{"sx":1,"sy":1,"depth":50,"w":{"0":-0.06390190275141559,"1":-0.03286175287681643,"2":-0.05997704403094095,"3":-0.10535801933815937,"4":0.08154763995982671,"5":0.1013656440343677,"6":0.22984441427482363,"7":-0.31597492224137663,"8":-0.07404866368654968,"9":0.10070312530144106,"10":-0.219600180085746,"11":-0.006382463427234369,"12":-0.09085833526454463,"13":0.04319407398877267,"14":0.22378698196012164,"15":0.20181072857911397,"16":-0.17142598181829208,"17":-0.16391279865867334,"18":-0.1519221142938019,"19":0.0758067000484118,"20":0.020278407356289718,"21":0.06831264094533743,"22":-0.16433038246039683,"23":0.045795187941156765,"24":-0.037075777049840844,"25":-0.021918868584596542,"26":-0.22601354115211147,"27":-0.027665581600843276,"28":-0.038381306346010426,"29":0.11574382146084997,"30":0.008581223636054944,"31":0.1419181129909965,"32":-0.06361960338505857,"33":0.037218958230064755,"34":0.21904060236372558,"35":-0.009020869075959845,"36":0.057103681755630846,"37":-0.0993677669725288,"38":0.016100724031757795,"39":0.3358692639141957,"40":0.01804526380489253,"41":-0.19937533240976438,"42":0.13215502743230736,"43":-0.032553538534156025,"44":0.017195678357179292,"45":0.13519893579529438,"46":0.1636741359780691,"47":0.056837834104054366,"48":-0.09154471213573522,"49":-0.07494698836244366}},{"sx":1,"sy":1,"depth":50,"w":{"0":-0.24701219013181938,"1":-0.09508237460318449,"2":-0.07458703043929711,"3":0.07537982812639787,"4":0.12756560766185077,"5":-0.04708582010135891,"6":0.25141761307590726,"7":-0.15006223992924902,"8":-0.0932876426100655,"9":0.08468043728996959,"10":-0.06710287426398574,"11":0.05116950173719339,"12":-0.04472999881097647,"13":0.11500807735178473,"14":-0.14029212456842519,"15":-0.19929888796263592,"16":-0.0389637108203796,"17":0.18288066921326157,"18":-0.013824067828433222,"19":0.07822986020566683,"20":-0.17000824371511156,"21":-0.08473085069401552,"22":-0.20238134057838705,"23":-0.1610354685001745,"24":0.08949572156928477,"25":-0.05583674382043128,"26":0.00035742442041711606,"27":0.08596760071182455,"28":-0.09407068379710475,"29":0.01816807269654327,"30":0.22905553738575007,"31":0.09879729113508812,"32":-0.15147898640723556,"33":-0.11654817573048194,"34":0.025982039596390102,"35":-0.030204994249113395,"36":0.0856742023785434,"37":0.19123191108848275,"38":-0.12035638315813318,"39":0.07893762879065541,"40":-0.09793143812462639,"41":-0.04123397494034786,"42":0.2000600981869968,"43":-0.1583276695367746,"44":0.16759129630726713,"45":-0.047573336767944556,"46":0.023967241108893214,"47":0.1039777367012072,"48":-0.14235843134347154,"49":-0.10347205076245765}},{"sx":1,"sy":1,"depth":50,"w":{"0":0.02948362345347127,"1":0.038018369938146244,"2":0.2582501536328812,"3":0.105247240815913,"4":0.05908664475916484,"5":-0.024367355470899903,"6":-0.1289829475363679,"7":0.19068403712276452,"8":0.024441585007897594,"9":-0.19169829026928956,"10":0.01853410478385126,"11":-0.11768503229213927,"12":0.25474911334274775,"13":0.061154218431970636,"14":-0.026726481116633803,"15":0.008752702005891995,"16":-0.09214246610534012,"17":-0.026757379185438936,"18":0.14034956164581483,"19":0.02588925665121031,"20":0.10338192338258598,"21":0.17179355621986356,"22":-0.21835105792970053,"23":0.039414880934918635,"24":0.12042164448672547,"25":-0.10885191203746568,"26":-0.13307811882791087,"27":-0.20184925353833466,"28":0.09487132662366217,"29":0.12938390878799272,"30":0.06951606454301733,"31":-0.08475802098108562,"32":0.045873477563800946,"33":0.334697934752462,"34":-0.18642172425900647,"35":-0.07378006231429446,"36":-0.11133520627834961,"37":-0.12717271286038792,"38":0.18937214014989445,"39":0.009705051901455104,"40":0.023334066145778213,"41":0.20943071893705115,"42":0.06672771387512628,"43":0.12769770458810809,"44":-0.001897826775635506,"45":-0.003277182825520392,"46":0.18897118484326675,"47":-0.12462910535653406,"48":-0.1808232036056696,"49":0.18805764558752133}},{"sx":1,"sy":1,"depth":50,"w":{"0":0.10983849548720945,"1":-0.14385293600403362,"2":-0.053467652951094014,"3":0.21185504604510325,"4":0.19384205707335125,"5":-0.08358506007014349,"6":-0.2833517832917083,"7":-0.1388467799680398,"8":0.023009234339123014,"9":0.03361623579922992,"10":0.05393794991680043,"11":-0.1268062708818977,"12":-0.12093326706549261,"13":-0.31878499740361244,"14":-0.09012933243927762,"15":0.04943971205934191,"16":-0.3186565846565276,"17":0.06671794646939404,"18":0.09225808794124593,"19":0.02952532634854445,"20":0.47434625948602277,"21":-0.1532137123461011,"22":0.03760530885010444,"23":-0.1434593807655352,"24":0.08456498910720299,"25":-0.03249872128248925,"26":-0.07792988062017404,"27":-0.304079917969909,"28":-0.1659948611298357,"29":-0.28154066962907276,"30":0.09875780071093991,"31":-0.13313755303716845,"32":-0.02604888970119583,"33":-0.19842415644551306,"34":0.4288970433809848,"35":0.25644263120673927,"36":0.0031504188123268493,"37":-0.1237517872279171,"38":-0.07214073749424654,"39":0.17063149346690493,"40":0.1973859687434151,"41":-0.41096510707247125,"42":-0.09458328178242119,"43":0.023693759335557982,"44":-0.0199303804894222,"45":-0.007493191116976268,"46":-0.01595390111746954,"47":0.14786304828249155,"48":-0.17980345822287208,"49":-0.12246435576924455}},{"sx":1,"sy":1,"depth":50,"w":{"0":0.14920477139828284,"1":0.12580029980496768,"2":-0.12453385247095966,"3":-0.21571009247294118,"4":0.10326589181552841,"5":0.1192639250424272,"6":0.04280484176283953,"7":0.10854131458844887,"8":0.023279716166421896,"9":-0.20485754736001766,"10":-0.05817760321921466,"11":0.04760290358842565,"12":0.018573398571126526,"13":0.18106937174003573,"14":-0.05207631075135223,"15":0.14286754936207707,"16":0.2466884633541561,"17":-0.16217688139134406,"18":0.15175352476416312,"19":0.28432153815936784,"20":-0.20960240062331675,"21":-0.06126850936439496,"22":-0.12674980044649314,"23":-0.021540360035835836,"24":0.03813810542902853,"25":0.06718396205825944,"26":0.06314555908655468,"27":0.053848180673526584,"28":-0.001751201264409975,"29":0.15907462134809286,"30":-0.07388458570000828,"31":0.07328366712114595,"32":-0.24346422728139622,"33":0.2561564673342046,"34":-0.2400126041934293,"35":-0.21847085117316237,"36":0.29192550733573386,"37":-0.10041087709905999,"38":-0.1880167028187719,"39":0.2022025337602038,"40":0.1731941631656404,"41":0.10644299834863913,"42":0.4035060177369101,"43":-0.5704738784475202,"44":0.08409407292798789,"45":-0.09570564235748896,"46":-0.1338270001444895,"47":0.22880160655323936,"48":-0.011671662805808291,"49":-0.03043386871272526}},{"sx":1,"sy":1,"depth":50,"w":{"0":-0.09742184578459073,"1":0.15990317728273287,"2":-0.2073325174120726,"3":0.07389648491236532,"4":-0.059399231792594154,"5":-0.11160282807277366,"6":-0.07054897654794695,"7":0.10713111729591723,"8":0.14954258260934228,"9":0.18300475469142438,"10":-0.06523616953905614,"11":0.0010279585307399414,"12":0.10400828324166246,"13":-0.03828013830119849,"14":0.015205475595187978,"15":0.14197052869582996,"16":-0.24434741381445635,"17":0.04543835676526755,"18":0.07055696912063804,"19":0.05581281406428956,"20":-0.11079699907326224,"21":-0.2604154169454147,"22":0.1884396629462704,"23":-0.16512981462081333,"24":0.09002412944191517,"25":-0.13093539581742253,"26":-0.1508564223459911,"27":-0.06562855944854877,"28":-0.09419762945571414,"29":-0.08136403367239349,"30":0.03237905796546852,"31":-0.16203743143777058,"32":-0.052736389001939915,"33":-0.2575779139586164,"34":-0.1485770409635217,"35":-0.043129481429289566,"36":0.15850395705083622,"37":0.4086654318495713,"38":-0.026498013096240218,"39":-0.09675760371927392,"40":-0.10718690800041063,"41":0.021811038104299265,"42":0.18836795802459871,"43":-0.06198366550614219,"44":0.10320485885578579,"45":-0.18924978950542656,"46":0.03623735529035537,"47":0.023972398065914564,"48":-0.06308685441376077,"49":-0.030759632122023796}},{"sx":1,"sy":1,"depth":50,"w":{"0":-0.08704822566991222,"1":0.013465182824024135,"2":-0.06849928466575485,"3":-0.06956488827645402,"4":0.03093862236938581,"5":0.046266712642676955,"6":0.002963578353156214,"7":-0.016919234532732096,"8":0.02755422294258897,"9":-0.06424920406808943,"10":0.03526720752038787,"11":-0.4163716182681196,"12":-0.14616101632268647,"13":-0.12684325119495207,"14":0.019699464705692143,"15":0.09323673665380165,"16":0.005197229821715877,"17":0.056275776497091576,"18":-0.21347181537670842,"19":0.04716724189382943,"20":0.09105856225113716,"21":-0.14845966978727687,"22":0.045540429361728356,"23":-0.18560618188496875,"24":0.07677915148872648,"25":-0.1165032582573362,"26":-0.08607989640790187,"27":-0.003372173208568091,"28":-0.08158001819967375,"29":-0.20658535612750023,"30":-0.12628070253569823,"31":-0.03611426970854965,"32":0.050938532487837196,"33":-0.02572810355577558,"34":0.0022172054451617524,"35":-0.028181768446733948,"36":0.016105235860865003,"37":0.1846404445993034,"38":-0.12580265300993823,"39":0.014510519852469511,"40":-0.14668633113010898,"41":-0.13019178776006354,"42":-0.062400966463176215,"43":0.03176667356173668,"44":-0.1300040934760865,"45":-0.06563793947359095,"46":-0.21279418280273205,"47":-0.12536157908893011,"48":0.02777752016909006,"49":0.1065515351099043}},{"sx":1,"sy":1,"depth":50,"w":{"0":-0.10975001269384378,"1":0.03554766407636716,"2":0.061582955462984396,"3":0.19206131350651334,"4":-0.014305338024572773,"5":0.14896451773846833,"6":-0.03493866587673422,"7":0.06326371598368959,"8":0.15390004613817382,"9":-0.09440004131695598,"10":-0.021957347370501486,"11":-0.016633714993001505,"12":0.027176498532018138,"13":-0.11211401412866392,"14":-0.0570936772393586,"15":0.04839764044431747,"16":-0.15666026716591333,"17":-0.26588356535948776,"18":-0.1935217035576349,"19":-0.007313871480485419,"20":-0.18789461086446857,"21":0.031077667684058816,"22":-0.057364663194059376,"23":0.026840555976787295,"24":0.2760862559315952,"25":-0.08980451094567156,"26":0.11067424782813973,"27":-0.09863057555453632,"28":-0.24475007483534622,"29":0.07901782929504451,"30":0.1224803142797052,"31":-0.10939855036221316,"32":-0.0077204772094247335,"33":-0.022205884887716614,"34":-0.30538787390883915,"35":-0.09550872502110065,"36":-0.04219998310768706,"37":-0.1107127819048744,"38":-0.11573571389545556,"39":0.16446239582046035,"40":0.03493976293596202,"41":-0.060713664106652146,"42":0.04795787383391572,"43":-0.034410039036776606,"44":0.26885471759422835,"45":0.1385844124363219,"46":-0.02809472052540696,"47":0.040661295686077625,"48":-0.018338681668285912,"49":0.038622908342764724}},{"sx":1,"sy":1,"depth":50,"w":{"0":0.1844197453871612,"1":-0.1051935848306102,"2":0.13379537503142566,"3":0.14752441658045973,"4":-0.1840364012312615,"5":0.16703898969493594,"6":-0.4265358970833203,"7":-0.4670237334186445,"8":0.007508340444079336,"9":-0.14907111139834436,"10":0.0700510623188709,"11":0.08637484168144537,"12":-0.2558185284482026,"13":0.30743130289683784,"14":0.07390991192260558,"15":0.07663510674157581,"16":0.024907704600986794,"17":0.16151341252955106,"18":-0.32586592034819756,"19":-0.04180396546094391,"20":0.6202762158965056,"21":-0.34623866259441555,"22":0.2934425891658189,"23":0.06825510357807017,"24":-0.0035456441845745606,"25":0.12304725664314783,"26":-0.007615776449968774,"27":0.1913245269222902,"28":-0.1187926514051939,"29":0.1514114615874445,"30":0.4208237464646782,"31":-0.5642792991337926,"32":0.025864878228447023,"33":-0.06578972297153043,"34":0.4354275421287569,"35":0.44041150452565075,"36":-0.351630042843039,"37":-0.04491585743271997,"38":0.38868310131042144,"39":0.012623494896409808,"40":-0.016570474773600387,"41":0.34419755912708844,"42":0.004211808956726706,"43":0.16689999707761724,"44":-0.04260902612882874,"45":-0.2489142652621063,"46":0.29908992383741384,"47":0.2936379396201811,"48":0.019228220869646366,"49":0.06326273893614687}},{"sx":1,"sy":1,"depth":50,"w":{"0":-0.12468803924158928,"1":-0.05595099069498431,"2":-0.08669671046601424,"3":0.19575694948950698,"4":-0.025661214730665065,"5":0.07456979501717298,"6":0.12269489919683803,"7":-0.13885431103910265,"8":-0.14244007473015222,"9":0.049142269764137145,"10":0.043417338065821556,"11":-0.19046882767585332,"12":0.0340814379267812,"13":0.17806169953355455,"14":0.2271476441487686,"15":-0.04509022359150968,"16":0.03054534122629456,"17":-0.01871406757843436,"18":0.08374616067811573,"19":-0.07551186302378973,"20":-0.02219133860057426,"21":-0.11644267819908828,"22":0.05321792266562765,"23":0.12898722049720263,"24":0.16807925342070915,"25":0.04350403301023809,"26":0.02937410114118291,"27":-0.2373477164791671,"28":0.013814357958103192,"29":0.0714544033015638,"30":-0.13895078324312687,"31":0.11720715876889594,"32":0.08399939275252682,"33":-0.3217575252780493,"34":0.2779922003820847,"35":0.1480620988890281,"36":-0.009176228082502222,"37":-0.00028285804961673984,"38":0.11177491586631412,"39":0.10492496021642359,"40":-0.02643642936929041,"41":-0.05252087050121103,"42":0.0011927940433034963,"43":0.09577105549928276,"44":-0.08012534313462329,"45":-0.10156810358298032,"46":0.16702792332231534,"47":-0.08477490723218509,"48":-0.05118982929312032,"49":-0.1045001339985476}}],"biases":{"sx":1,"sy":1,"depth":50,"w":{"0":0.06987652722823591,"1":0.07134816505639624,"2":0.1052295491406494,"3":0.4324180410565261,"4":0.1688592490281584,"5":0.13426304375097536,"6":0.15984957518364976,"7":0.1994747530403614,"8":0.11556944687731233,"9":0.05085559270031615,"10":0.022076203358890094,"11":0.0796222660751053,"12":0.10594588667181999,"13":0.04577406899162251,"14":0.14977903560347952,"15":0.2815364653508571,"16":-0.002386344180172179,"17":-0.041661256734135406,"18":0.04096916315781763,"19":0.14110852752091635,"20":0.0018969018047411393,"21":0.3826787044884186,"22":0.09181617071489637,"23":-0.0903869203822159,"24":0.061018812963928214,"25":-0.03576473968373082,"26":0.08775185059774161,"27":0.08853140334801349,"28":0.019546342800774632,"29":0.176857109387128,"30":0.08723403377776945,"31":0.10203691365153318,"32":0.05166983650843227,"33":-0.015969070135679376,"34":0.08544462028305949,"35":0.10007368008664674,"36":0.05283952308212809,"37":0.07144303413837212,"38":0.09072782525143773,"39":-0.06645406026449124,"40":0.15392631751335453,"41":0.1459644651565954,"42":0.12995883497666544,"43":0.06879878622306405,"44":0.2921633763206713,"45":0.11612730503335462,"46":0.06788952691713648,"47":0.14352616401254048,"48":0.013480905346843208,"49":0.09117748825660074}}},{"out_depth":50,"out_sx":1,"out_sy":1,"layer_type":"relu"},{"out_depth":5,"out_sx":1,"out_sy":1,"layer_type":"fc","num_inputs":50,"l1_decay_mul":0,"l2_decay_mul":1,"filters":[{"sx":1,"sy":1,"depth":50,"w":{"0":0.12088146641590951,"1":-0.2740703689599925,"2":0.09875226074339931,"3":0.5100127034291596,"4":0.15216167614279247,"5":-1.36565846099403,"6":0.3899006957931828,"7":0.3594325727352411,"8":0.21779047406344418,"9":0.08140208048698425,"10":-0.5995712616325009,"11":-0.2013405378934127,"12":0.2880813723891718,"13":-0.4172373068382145,"14":0.11089740045699549,"15":0.46645302555849066,"16":-0.11789012313918734,"17":-0.7484639881112749,"18":-0.4642122172207884,"19":0.3506862703380256,"20":-0.6914918032952989,"21":0.7469211512498551,"22":0.05382236982485664,"23":-0.8927694662102448,"24":-0.0037520582109673616,"25":-1.0364663865707162,"26":-0.1477003165608847,"27":0.07328155527105526,"28":-0.707524517476742,"29":0.18828515751290525,"30":0.14157451827275505,"31":-0.14286954213195233,"32":-0.298002834641379,"33":-1.0180203782124118,"34":-0.16331290275266977,"35":-0.02552576403884697,"36":-0.6607543971731012,"37":-0.5029029897487519,"38":-0.15448660891702157,"39":-1.1133880359725854,"40":0.26586026218811115,"41":0.1590806585284567,"42":-0.1774161178433588,"43":-0.640294192523082,"44":0.565527127107019,"45":-0.20980290038623414,"46":0.2102941388961633,"47":0.3443414414427278,"48":-0.8759508143119128,"49":-0.5940433341153393}},{"sx":1,"sy":1,"depth":50,"w":{"0":0.12694991774512254,"1":0.16668671318185738,"2":0.2349042396382702,"3":0.8440907507393971,"4":0.3515105144042283,"5":-1.079270275804256,"6":0.5263937704528064,"7":0.04872141104344725,"8":0.1651328586502541,"9":-0.26621682844942,"10":-0.7858695094620646,"11":0.13831934159843778,"12":0.4109592678759726,"13":-0.14508581507451243,"14":0.09217124687423553,"15":0.13304600528168156,"16":0.09508240266440544,"17":-0.45466913115800306,"18":0.08156661763561769,"19":0.11913172942080494,"20":-0.8169627554007998,"21":0.5464315635012115,"22":-0.0039482713843198404,"23":-0.8219754400808786,"24":0.15964100609412868,"25":-0.755236897431464,"26":0.0873108821005961,"27":-0.19162654652688166,"28":-0.39994301875158583,"29":0.40624040743600276,"30":-0.010367300871293042,"31":-0.015701457032586394,"32":-0.12962593708510808,"33":-0.9816415936258951,"34":-0.39677757378617845,"35":-0.1255698255977162,"36":-0.6653390858636729,"37":0.15859385752584554,"38":-0.08533461088515973,"39":-0.713848889830918,"40":-0.1421921178945905,"41":-0.01168521498636314,"42":-0.24230101534497137,"43":-0.4322785379951283,"44":0.13941044644595474,"45":-0.15512206954817026,"46":0.3188441619951506,"47":0.11860869538251444,"48":-0.4058729437015973,"49":0.022413784884805218}},{"sx":1,"sy":1,"depth":50,"w":{"0":0.048478280708611335,"1":-0.04896794217845247,"2":0.2877532566808437,"3":0.5897125343035515,"4":0.4588662516224201,"5":-0.5565579292578487,"6":0.14682313054042934,"7":0.24653766013238568,"8":-0.25563602337768393,"9":-0.23081066645106565,"10":-0.7238346819530271,"11":-0.33053665594645276,"12":0.2105185367310552,"13":-0.4937481514263925,"14":0.3544605044646014,"15":0.46148563921869534,"16":-0.6763654955776568,"17":-0.3733063887206215,"18":-0.7225064746715888,"19":0.2465336378639009,"20":-0.6038383363409354,"21":0.5722968583976755,"22":-0.28041991307257913,"23":-1.1228412790058062,"24":-0.48315038931244525,"25":-0.6193481529649316,"26":-0.3505173686605925,"27":-0.00023781747953067933,"28":-0.18147665979646108,"29":0.2326236663195915,"30":0.04022213998211261,"31":0.20696823025801642,"32":-0.44873149720127337,"33":-0.45419306797424047,"34":0.1949242276793789,"35":-0.06328008205946262,"36":-0.5463057302770038,"37":-0.11021168240273232,"38":-0.3253606457151866,"39":-0.5004954220586436,"40":0.34421897496272724,"41":0.36018746444340916,"42":-0.35658465785454196,"43":-0.475994839427063,"44":0.44864340090337934,"45":0.1908794772601204,"46":-0.1613064025734303,"47":0.11599496773420039,"48":-0.8423075402979492,"49":-0.02547040043292617}},{"sx":1,"sy":1,"depth":50,"w":{"0":-0.06263249387852644,"1":0.02041756789379037,"2":0.06178925532343167,"3":0.604486644871129,"4":0.20904243043261525,"5":-0.27650576113639863,"6":0.043926769930458714,"7":0.12173369565035969,"8":0.1325435707202712,"9":0.010771966245323929,"10":-0.39437765893360527,"11":0.011520935634259925,"12":0.2146629096720371,"13":-0.448190207183167,"14":0.27483029161372635,"15":0.29929526650663196,"16":-0.04984728049136299,"17":-0.1992649645228606,"18":-0.5274028757887836,"19":0.37812883637505523,"20":-0.39211796066419563,"21":0.230601134203145,"22":-0.20597222969096488,"23":-0.8893117727089065,"24":-0.6174306871309934,"25":-0.4985991380281639,"26":-0.1507349112356876,"27":-0.17722771128209613,"28":-0.08910286246703383,"29":0.2127745003168765,"30":0.030857962204772167,"31":0.3496754992491525,"32":-0.353537915437534,"33":-0.223979684156333,"34":0.3996785512317176,"35":0.024262477863525703,"36":-0.40775374091531347,"37":-0.26805187330977226,"38":0.02772444226954294,"39":-0.3322809765096552,"40":-0.03564397288807089,"41":0.228113690993801,"42":-0.20161330811388609,"43":-0.1729378700266754,"44":0.5719712503187314,"45":0.008223444855372561,"46":-0.14142251812708384,"47":-0.08259610977300937,"48":-0.47938693434292556,"49":-0.15580144058837003}},{"sx":1,"sy":1,"depth":50,"w":{"0":0.09198036676332563,"1":0.052605652801783066,"2":-0.08487839168018887,"3":0.8586499976335378,"4":0.212394830579528,"5":-0.7132163292053632,"6":0.22398044858631358,"7":0.04238609360352946,"8":-0.04860726928801995,"9":-0.22999227507251574,"10":-0.4980963126649225,"11":-0.09030212648601907,"12":0.29389221592911746,"13":-0.08051650305028892,"14":0.016622030523569566,"15":0.2890291267811908,"16":0.09129307395317268,"17":-0.3180209636979714,"18":0.04604143324281109,"19":0.0026742487092050785,"20":-0.4287545865244458,"21":0.1341563849687906,"22":0.20885383688863712,"23":-0.43869602632944293,"24":0.3058815621720057,"25":-0.4143834545754582,"26":0.07150497429816477,"27":-0.07540884405581252,"28":-0.46617132973575415,"29":-0.009052420904154455,"30":0.1428770337493204,"31":-0.09091536186718831,"32":-0.08433850051063664,"33":-0.48671355775106256,"34":-0.36500017355223335,"35":0.037010719312027554,"36":-0.29960834597314234,"37":-0.09736469303996487,"38":-0.333647158224403,"39":-0.45889229817194205,"40":-0.046699858987234825,"41":-0.33553179671943967,"42":-0.23041966927297822,"43":-0.28085219908865694,"44":0.15443543507096497,"45":-0.097516830520489,"46":0.10877484373272871,"47":0.08663340088996885,"48":-0.32721453934745287,"49":0.07122869531901886}}],"biases":{"sx":1,"sy":1,"depth":5,"w":{"0":0.13772066610071063,"1":0.13063006874513067,"2":0.4006492685783954,"3":0.09551184208169343,"4":-0.006297960357191565}}},{"out_depth":5,"out_sx":1,"out_sy":1,"layer_type":"regression","num_inputs":5}]}